{"<|endoftext|>":0,"!":1,"\"":2,"#":3,"$":4,"%":5,"&":6,"'":7,"(":8,")":9,"*":10,"+":11,",":12,"-":13,".":14,"/":15,"0":16,"1":17,"2":18,"3":19,"4":20,"5":21,"6":22,"7":23,"8":24,"9":25,":":26,";":27,"<":28,"=":29,">":30,"?":31,"@":32,"A":33,"B":34,"C":35,"D":36,"E":37,"F":38,"G":39,"H":40,"I":41,"J":42,"K":43,"L":44,"M":45,"N":46,"O":47,"P":48,"Q":49,"R":50,"S":51,"T":52,"U":53,"V":54,"W":55,"X":56,"Y":57,"Z":58,"[":59,"\\":60,"]":61,"^":62,"_":63,"`":64,"a":65,"b":66,"c":67,"d":68,"e":69,"f":70,"g":71,"h":72,"i":73,"j":74,"k":75,"l":76,"m":77,"n":78,"o":79,"p":80,"q":81,"r":82,"s":83,"t":84,"u":85,"v":86,"w":87,"x":88,"y":89,"z":90,"{":91,"|":92,"}":93,"~":94,"¡":95,"¢":96,"£":97,"¤":98,"¥":99,"¦":100,"§":101,"¨":102,"©":103,"ª":104,"«":105,"¬":106,"®":107,"¯":108,"°":109,"±":110,"²":111,"³":112,"´":113,"µ":114,"¶":115,"·":116,"¸":117,"¹":118,"º":119,"»":120,"¼":121,"½":122,"¾":123,"¿":124,"À":125,"Á":126,"Â":127,"Ã":128,"Ä":129,"Å":130,"Æ":131,"Ç":132,"È":133,"É":134,"Ê":135,"Ë":136,"Ì":137,"Í":138,"Î":139,"Ï":140,"Ð":141,"Ñ":142,"Ò":143,"Ó":144,"Ô":145,"Õ":146,"Ö":147,"×":148,"Ø":149,"Ù":150,"Ú":151,"Û":152,"Ü":153,"Ý":154,"Þ":155,"ß":156,"à":157,"á":158,"â":159,"ã":160,"ä":161,"å":162,"æ":163,"ç":164,"è":165,"é":166,"ê":167,"ë":168,"ì":169,"í":170,"î":171,"ï":172,"ð":173,"ñ":174,"ò":175,"ó":176,"ô":177,"õ":178,"ö":179,"÷":180,"ø":181,"ù":182,"ú":183,"û":184,"ü":185,"ý":186,"þ":187,"ÿ":188,"Ā":189,"ā":190,"Ă":191,"ă":192,"Ą":193,"ą":194,"Ć":195,"ć":196,"Ĉ":197,"ĉ":198,"Ċ":199,"ċ":200,"Č":201,"č":202,"Ď":203,"ď":204,"Đ":205,"đ":206,"Ē":207,"ē":208,"Ĕ":209,"ĕ":210,"Ė":211,"ė":212,"Ę":213,"ę":214,"Ě":215,"ě":216,"Ĝ":217,"ĝ":218,"Ğ":219,"ğ":220,"Ġ":221,"ġ":222,"Ģ":223,"ģ":224,"Ĥ":225,"ĥ":226,"Ħ":227,"ħ":228,"Ĩ":229,"ĩ":230,"Ī":231,"ī":232,"Ĭ":233,"ĭ":234,"Į":235,"į":236,"İ":237,"ı":238,"Ĳ":239,"ĳ":240,"Ĵ":241,"ĵ":242,"Ķ":243,"ķ":244,"ĸ":245,"Ĺ":246,"ĺ":247,"Ļ":248,"ļ":249,"Ľ":250,"ľ":251,"Ŀ":252,"ŀ":253,"Ł":254,"ł":255,"Ń":256,"in":257,"an":258,"on":259,"re":260,"ti":261,"en":262,"er":263,"ing":264,"Ġt":265,"al":266,"or":267,"es":268,"Ġs":269,"Ġan":270,"tion":271,"ar":272,"ed":273,"at":274,"Ġc":275,"Ġp":276,"Ġa":277,"Ġl":278,"Ġand":279,"og":280,"is":281,"ro":282,"he":283,"Ġm":284,"it":285,"Ġd":286,"Ġf":287,"ation":288,"ent":289,"ic":290,"ĠL":291,"et":292,"el":293,"mp":294,"as":295,"ec":296,"st":297,"Ġin":298,"Ġre":299,"Ġw":300,"Ġo":301,"ac":302,"Ġe":303,"Ġthe":304,"le":305,"ĠS":306,"Ġlog":307,"Ġb":308,"od":309,"20":310,"ce":311,"un":312,"us":313,"ab":314,"Ġ[":315,"ag":316,"Ġ(":317,"ĠI":318,"ang":319,"ly":320,"ĠA":321,"ut":322,"om":323,"Ġto":324,"id":325,"il":326,"ĠC":327,"ur":328,"tr":329,"em":330,"ig":331,"ĠT":332,"Ġof":333,"âĢ":334,"ĠY":335,"ain":336,"202":337,"10":338,"per":339,"Ġon":340,"LM":341,"ow":342,"aly":343,"Ġh":344,"Ġfor":345,"ul":346,"Ġcon":347,"am":348,"ter":349,"ve":350,"ĠM":351,"ĠF":352,"Ġth":353,"ev":354,"ine":355,"Ġor":356,"ch":357,"ad":358,"ith":359,"ol":360,"if":361,"tic":362,"ity":363,"ĠR":364,"ĠIn":365,"ĠH":366,"ure":367,"Ġpro":368,"omp":369,"Ġn":370,"Ġst":371,"Ġg":372,"ĠLLM":373,"Ġv":374,"Ġsu":375,"th":376,"sis":377,"Ġev":378,"ex":379,"Ġex":380,"Ġ202":381,"ĠP":382,"ĠZ":383,"odel":384,"age":385,"iz":386,"ĠB":387,"Ġwith":388,"ars":389,"ts":390,"ss":391,"are":392,"Ġis":393,"ate":394,"ĠG":395,"ĠJ":396,"ting":397,"ĠE":398,"qu":399,"ong":400,"pl":401,"ess":402,"Ġmodel":403,"und":404,"iv":405,"),":406,"uc":407,"ection":408,"hen":409,"ĠD":410,"ased":411,"mpl":412,"Log":413,"ot":414,"ers":415,"ap":416,"ĠU":417,"Ġpre":418,"and":419,"Ġas":420,"].":421,"of":422,"ĠW":423,"ext":424,"Ġus":425,"Ġr":426,"EE":427,"Ġal":428,"str":429,"11":430,"mar":431,"ment":432,"ren":433,"able":434,"Ġare":435,"based":436,"ener":437,"ĠN":438,"ask":439,"ĠZh":440,"ps":441,"tive":442,"to":443,"ies":444,"tern":445,"ud":446,"ail":447,"os":448,"pre":449,"alysis":450,"Ġ1":451,"ence":452,"orm":453,"ĠLog":454,"oc":455,"empl":456,"all":457,"Ġpars":458,"ational":459,"Ġdet":460,"igh":461,"ia":462,"Ġcomp":463,"im":464,"ir":465,"up":466,"omaly":467,"fe":468,"ging":469,"âĢĵ":470,"tt":471,"ge":472,"Ġlogs":473,"Ġcont":474,"ver":475,"Ġthat":476,"Ġtr":477,"ear":478,"oi":479,"ated":480,"Ġwh":481,"ion":482,"tri":483,"ore":484,"ware":485,"feren":486,"log":487,"ork":488,"ĠLi":489,"um":490,"ross":491,"//":492,"tim":493,"ttps":494,"ates":495,"RL":496,"aus":497,"Ġmet":498,"ew":499,"Ġen":500,"ĠX":501,"Ġ10":502,"angu":503,"yst":504,"Ġtask":505,"Ġbe":506,"Ġgener":507,"anguage":508,"ility":509,"Ġdetection":510,"ystem":511,".,":512,"pp":513,"ations":514,"://":515,"ally":516,"ug":517,"org":518,"Ġac":519,"Ġinc":520,"ach":521,"oft":522,"ff":523,"ost":524,"ric":525,"ĠYes":526,"ĠURL":527,"form":528,"ĠO":529,"vis":530,"ings":531,"ents":532,"ĠK":533,"Ġtempl":534,"Ġanomaly":535,"Ġhttps":536,"ages":537,"ect":538,"ference":539,"PT":540,"Ġpr":541,"Ġ2025":542,"Ġparsing":543,"ke":544,"ten":545,"pervis":546,"con":547,"Ġanalysis":548,"Ġde":549,"rec":550,"ering":551,"under":552,"oftware":553,"ĠTh":554,"Ġpromp":555,"Ġmodels":556,"hod":557,"Ġby":558,"ay":559,"ip":560,"ort":561,"rom":562,"eng":563,"ign":564,"triev":565,"45":566,"ability":567,"ĠCon":568,"dic":569,"ĠâĢ":570,"ari":571,"Ġlogging":572,"ode":573,"ization":574,"alu":575,"idence":576,"Ġsum":577,"ao":578,"pervised":579,"Ġsummar":580,"ance":581,"Ġcan":582,"put":583,"ause":584,"Ġstr":585,"Ġlanguage":586,"ailure":587,"aper":588,"sent":589,"Ġad":590,"Ġoper":591,"pec":592,"Ġsystem":593,"arge":594,"Ġdoi":595,"EEE":596,"gine":597,"Ġfrom":598,"ich":599,"ER":600,"ition":601,"line":602,"ĠSh":603,"uct":604,"21":605,"ord":606,"Ġch":607,"36":608,"Ġit":609,"Ġretriev":610,"Ġexpl":611,"present":612,"pen":613,"upervised":614,"âĢĿ":615,"Ġdi":616,"gineering":617,"low":618,"ind":619,"Ġcontext":620,"Pro":621,"Ġpar":622,"Ġwork":623,"time":624,"ile":625,"ning":626,"ser":627,"ĠLLMs":628,"ternational":629,"ĠâĢľ":630,"ib":631,"aining":632,"ERT":633,"mb":634,"ted":635,"ific":636,"ĠZhang":637,").":638,"yp":639,"ans":640,"Ġevidence":641,"Ġet":642,"int":643,"tions":644,"ĠEn":645,"av":646,"Ġsc":647,"Ġcl":648,"IC":649,"ous":650,"enc":651,"Ġbut":652,"ĠInternational":653,"Ġlarge":654,"ical":655,"ement":656,"imp":657,"li":658,"ust":659,"Ġ.":660,"Ġun":661,"Ġunder":662,"ines":663,"tif":664,"Ġcom":665,"Ġapp":666,"ĠSoftware":667,"ĠAn":668,"ĠGPT":669,"15":670,"CM":671,"Ġ3":672,"Ġsem":673,"trac":674,"Ġgeneration":675,"18":676,"ei":677,"ard":678,"ĠIEEE":679,"utput":680,"tics":681,"Ġpredic":682,"LLM":683,"so":684,"ream":685,"ors":686,"Ġpages":687,"ĠConference":688,"ative":689,"op":690,"ass":691,"ulti":692,"Ġgro":693,"Ġ2024":694,"1145":695,"Ġro":696,"attern":697,"here":698,"abel":699,"evel":700,"ucture":701,"19":702,"37":703,"ful":704,"ll":705,"Ġrec":706,"Ġstud":707,"Ġmethod":708,"Ġacross":709,"25":710,"SE":711,"equ":712,"ient":713,"sh":714,"Ġ4":715,"edd":716,"edings":717,"Ġdes":718,"lev":719,"ceedings":720,"ĠCh":721,"ipel":722,"duc":723,"ata":724,"ely":725,"ĠYu":726,"rics":727,"CA":728,"yu":729,"ĠQ":730,"Ġar":731,"ant":732,"Ġcode":733,"Ġpaper":734,"ack":735,"Ġprac":736,"ak":737,"bo":738,"Ġsh":739,"agn":740,"Ġvari":741,"ĠNo":742,"Ġtasks":743,"rect":744,"16":745,"Ġat":746,"Ġdec":747,"Ġoutput":748,"Ġevalu":749,"Ġretrieval":750,"ii":751,"ian":752,"Ġ+":753,"Ġ6":754,"ary":755,"Ġthey":756,"ĠChen":757,"Ġnot":758,"Ġusing":759,"earch":760,"Proceedings":761,"oy":762,"Ġ/":763,"Ġimp":764,"antic":765,"Ġpattern":766,"Ġpipel":767,"Ġman":768,"Ġfailure":769,"Ġrep":770,"Ġtemplates":771,"ms":772,"ual":773,"ther":774,"Xiv":775,"ep":776,"han":777,"xiv":778,"Ġ20":779,"Ġsur":780,"arxiv":781,"Ġlear":782,"roach":783,"Ġmess":784,"ason":785,"Ġrepresent":786,"abl":787,"abs":788,"ĠIC":789,"ĠComp":790,"Ġoften":791,"ight":792,"Ġwhile":793,"Ġtemplate":794,"indow":795,"ĠEngineering":796,"17":797,"ri":798,"ution":799,"ĠV":800,"ench":801,"ese":802,"Ġcor":803,"Ġmain":804,"Ġinto":805,"own":806,"ift":807,"Ġuse":808,"Ġincid":809,"ou":810,"text":811,"Ġqu":812,"est":813,"Ġsel":814,"Ġlabel":815,"Ġres":816,"Ġwhen":817,"ained":818,"ĠLiu":819,"ix":820,"over":821,"Ġmulti":822,"Ġdif":823,"Ġinter":824,"acy":825,"Ġemb":826,"ĠSupervised":827,"00":828,"23":829,"aw":830,"ram":831,"tiv":832,"ality":833,"Ġset":834,"ature":835,"stream":836,"oder":837,"utom":838,"ult":839,"Ġsuch":840,"ugh":841,"ĠThis":842,"pecific":843,"14":844,"GL":845,"ound":846,"Ġhe":847,"ens":848,"Ġtyp":849,"Ġhigh":850,"vey":851,"Ġthis":852,"ĠBGL":853,"du":854,"doi":855,"tun":856,"ating":857,"Ġdr":858,"amet":859,"ize":860,"ffic":861,"Ġprompt":862,"Ġstructure":863,"24":864,"Ġdis":865,"Ġwe":866,"ĠAc":867,"ĠThe":868,"ĠInProceedings":869,"Ġwhich":870,"Ġmetrics":871,"ugment":872,"Ġcomm":873,"Ġsemantic":874,"Ġpapers":875,"35":876,"ber":877,"lud":878,"ness":879,"pro":880,"uang":881,"Ġmay":882,"ace":883,"ome":884,"ever":885,"Ġevent":886,"Ġdiagn":887,"te":888,"Ġ-":889,"Ġstat":890,"ency":891,"Ġembedd":892,"08":893,"cur":894,"ead":895,"ie":896,"iew":897,"main":898,"ision":899,"Ġwhere":900,"ĠYang":901,"ĠHe":902,"ĠUn":903,"mark":904,"iao":905,"serv":906,"roaches":907,"enchmark":908,"ownstream":909,"DF":910,"In":911,"cr":912,"cess":913,"fer":914,"flow":915,"now":916,"Ġid":917,"Ġover":918,"ural":919,"Ġonly":920,"Ġconstr":921,"olog":922,"Ġsummarization":923,"pend":924,"Ġdrift":925,"39":926,"ai":927,"atic":928,"Ġke":929,"ath":930,"Ġper":931,"icit":932,"2025":933,"ĠWang":934,"Ġcompon":935,"Ġprompting":936,"Ġoperational":937,"Ġsystems":938,"Ġstudies":939,"ĠICL":940,"12":941,"TA":942,"specific":943,"the":944,"yle":945,"ale":946,"ets":947,"ĠRo":948,"ploy":949,"ĠXu":950,"Ġsurvey":951,"DFS":952,"110":953,"ACM":954,"ied":955,"Ġtext":956,"ist":957,"etw":958,"mpt":959,"training":960,"Ġalso":961,"level":962,"Ġoutputs":963,"Ġlearning":964,"Ġincident":965,"utomated":966,"pr":967,"Ġtime":968,"err":969,"Ġcause":970,"Ġmost":971,"ase":972,"ĠRCA":973,"sist":974,"ized":975,"ĠBERT":976,"apt":977,"ĠWe":978,"Ġdeploy":979,"equence":980,"ĠComput":981,"BERT":982,"Ġ7":983,"ator":984,"ethod":985,"Ġwindow":986,"ame":987,"ĠHDFS":988,"Ġclass":989,"Ġprediction":990,"Ġdesign":991,"gr":992,"iation":993,"our":994,"wh":995,"ree":996,"entif":997,"Ġfe":998,"stead":999,"Ġreason":1000,"act":1001,"ide":1002,"Ġprov":1003,"ĠJi":1004,"Ġcontro":1005,"ial":1006,"ple":1007,"Ġag":1008,"Ġmore":1009,"Ġdata":1010,"Ġob":1011,"ĠTr":1012,"Ġ2023":1013,"heng":1014,"uping":1015,"Ġenc":1016,"ĠOn":1017,"context":1018,"Ġexplicit":1019,"Ġapproaches":1020,"Ġmany":1021,"26":1022,"SS":1023,"mall":1024,"out":1025,"ue":1026,"Ġ9":1027,"inc":1028,"als":1029,"Ġcost":1030,"Ġlevel":1031,"Ġdownstream":1032,"ecause":1033,"Ġreli":1034,"tical":1035,"Ġsupp":1036,"imit":1037,"Ġimpro":1038,"Ġpatterns":1039,"Ġmessage":1040,"ugmented":1041,"Ġcommon":1042,"curacy":1043,"Ġdeployment":1044,"03":1045,"13":1046,"fig":1047,"oth":1048,"yn":1049,"ond":1050,"ish":1051,"road":1052,"ĠLe":1053,"Ġevents":1054,"Ġextrac":1055,"Ġrun":1056,"Ġtrans":1057,"shot":1058,"Ġpipelines":1059,"ables":1060,"duce":1061,"fficient":1062,"Ġkey":1063,"1109":1064,"ĠOnline":1065,"fin":1066,"ire":1067,"ior":1068,"ues":1069,"analysis":1070,"end":1071,"Ġsp":1072,"atch":1073,"Ġlong":1074,"Ġloc":1075,"ech":1076,"Ġrequ":1077,"lem":1078,"Ġbound":1079,"Ġhow":1080,"Ġorg":1081,"Ġvia":1082,"tings":1083,"ormal":1084,"MA":1085,"oper":1086,"supervised":1087,"ui":1088,"Ġ21":1089,"Ġsign":1090,"edge":1091,"ecur":1092,"ache":1093,"ĠPA":1094,"ssoc":1095,"ateg":1096,"uction":1097,"Ġraw":1098,"Ġ18":1099,"ird":1100,"trib":1101,"Ġadd":1102,"itional":1103,"Ġparamet":1104,"Ġworkflow":1105,"Ġevaluation":1106,"Ġmultiple":1107,"Ġstructured":1108,"bust":1109,"for":1110,"fore":1111,"ger":1112,"ium":1113,"osis":1114,"sc":1115,"tice":1116,"ene":1117,"ory":1118,"Ġcross":1119,"ases":1120,"style":1121,"ĠSem":1122,"Ġbroad":1123,"Ġtool":1124,"Ġconc":1125,"Ġthese":1126,"Ġwhat":1127,"Ġdepend":1128,"Ġground":1129,"Ġmethods":1130,"ĠarXiv":1131,"rectly":1132,"Ġsettings":1133,"nowl":1134,"ecurity":1135,"ssociation":1136,"GPT":1137,"ik":1138,"ub":1139,"Ġ2":1140,"reat":1141,"ress":1142,"requ":1143,"entic":1144,"oring":1145,"Ġsearch":1146,"Ġsome":1147,"arly":1148,"Ġfa":1149,"Ġinstead":1150,"Ġremain":1151,"ĠACM":1152,"ules":1153,"Ġne":1154,"Ġinclud":1155,"Ġuseful":1156,"ology":1157,"42":1158,"],":1159,"ces":1160,"gener":1161,"ok":1162,"Ġco":1163,"rough":1164,"Ġfine":1165,"ically":1166,"ast":1167,"aces":1168,"Ġtok":1169,"Ġform":1170,"adig":1171,"iven":1172,"formation":1173,"tuning":1174,"Ġconstrain":1175,"print":1176,"nowledge":1177,"79":1178,"LE":1179,"hav":1180,"iel":1181,"par":1182,"rid":1183,"se":1184,"uo":1185,"uan":1186,"ving":1187,"view":1188,"ward":1189,"red":1190,"Ġsame":1191,"Ġsmall":1192,"atural":1193,"Ġfram":1194,"ĠAssociation":1195,"arsing":1196,"pret":1197,"Ġcompar":1198,"logs":1199,"âĢĿ,":1200,"ification":1201,"Ġroot":1202,"Ġvariables":1203,"Ġquality":1204,"Ġfeature":1205,"Ġreasoning":1206,"echn":1207,"):":1208,"43":1209,"53":1210,"RA":1211,"augmented":1212,"iti":1213,"sup":1214,"with":1215,"Ġ8":1216,"Ġk":1217,"one":1218,"till":1219,"ingle":1220,"Ġsoftware":1221,"Ġanaly":1222,"atas":1223,"Ġpl":1224,"ise":1225,"Ġbecause":1226,"2023":1227,"ĠGA":1228,"Ġpreprint":1229,"ments":1230,"ocus":1231,"irst":1232,"Ġtrad":1233,"ĠXiao":1234,"Ġrobust":1235,"Ġpractice":1236,"Ġidentif":1237,"Ġsignals":1238,"47":1239,"GE":1240,"La":1241,"ah":1242,"amp":1243,"blem":1244,"ey":1245,"iqu":1246,"ppl":1247,"uis":1248,"Ġup":1249,"ery":1250,"arXiv":1251,"Ġcaus":1252,"ice":1253,"Ġref":1254,"acts":1255,"ĠRe":1256,"Ġno":1257,"Ġevol":1258,"Ġused":1259,"struction":1260,"ĠZhou":1261,"Ġtraces":1262,"ions":1263,"Ġbehav":1264,"Ġgrouping":1265,"Ġcorp":1266,"Ġdiagnosis":1267,"Ġstatement":1268,"etwork":1269,"ĠSemi":1270,"LaMA":1271,"01":1272,"49":1273,"75":1274,"cent":1275,"comp":1276,"failure":1277,"ier":1278,"ially":1279,"oint":1280,"ven":1281,"ves":1282,"ank":1283,"Ġso":1284,"Ġlimit":1285,"ogene":1286,"Ġma":1287,"ices":1288,"Ġbenchmark":1289,"ĠMa":1290,"oll":1291,"ollow":1292,"ĠJia":1293,"Ġrare":1294,"imil":1295,"sour":1296,"Ġdescr":1297,"levant":1298,"Ġpipeline":1299,"Ġembeddings":1300,"ĠUnsup":1301,"Ġobserv":1302,"Ġsupport":1303,"figur":1304,"Ġrequire":1305,"Ġconstraints":1306,"62":1307,"77":1308,"ampl":1309,"bird":1310,"model":1311,"rit":1312,"ras":1313,"templ":1314,"yb":1315,"Ġj":1316,"Ġerr":1317,"inguis":1318,"orient":1319,"Ġsequence":1320,"Ġstill":1321,"Ġsingle":1322,"arg":1323,"aries":1324,"stand":1325,"Ġinference":1326,"Ġreal":1327,"acing":1328,"Ġemp":1329,"Ġeff":1330,"lex":1331,"ĠSt":1332,"ĠAd":1333,"ĠAs":1334,"omain":1335,"ill":1336,"trained":1337,"2024":1338,"terogene":1339,"ĠMethod":1340,"Ġthan":1341,"ĠHong":1342,"Ġnormal":1343,"imin":1344,"ummar":1345,"formance":1346,"ĠThunder":1347,"Ġoperator":1348,"Ġchall":1349,"Ġexplan":1350,"Ġpractical":1351,"Ġdiff":1352,"Ġtypically":1353,"Ġcomponents":1354,"aptation":1355,"Ġruntime":1356,"oriented":1357,"28":1358,"GA":1359,"LA":1360,"Sup":1361,"ck":1362,"ds":1363,"hu":1364,"ject":1365,"lated":1366,"oT":1367,"ough":1368,"Ġ&":1369,"Ġes":1370,"erv":1371,"alization":1372,"arr":1373,"ators":1374,"Ġab":1375,"Ġautomated":1376,"Ġlat":1377,"Ġreus":1378,"ĠSu":1379,"ements":1380,"Ġthrough":1381,"Ġvers":1382,"izes":1383,"aptive":1384,"ĠWei":1385,"ose":1386,"Ġtraining":1387,"Ġengineering":1388,"Ġcomb":1389,"Ġstudy":1390,"ducing":1391,"Ġartif":1392,"Ġdecision":1393,"Ġself":1394,"ixed":1395,"Ġinterpret":1396,"Ġorgan":1397,"Ġgrounding":1398,"source":1399,"ybrid":1400,"terogeneous":1401,"ĠThunderbird":1402,"55":1403,"92":1404,"FO":1405,"IEEE":1406,"NFO":1407,"ael":1408,"aware":1409,"di":1410,"ean":1411,"facing":1412,"her":1413,"ily":1414,"loc":1415,"min":1416,"we":1417,"Ġy":1418,"Ġcoll":1419,"iss":1420,"heck":1421,"eli":1422,"ective":1423,"ecution":1424,"Ġint":1425,"Ġop":1426,"Ġback":1427,"omal":1428,"Ġonline":1429,"ull":1430,"ĠMan":1431,"ify":1432,"ĠHuang":1433,"Ġstable":1434,"ĠPro":1435,"osition":1436,"pecially":1437,"ords":1438,"Ġchang":1439,"Ġretrieved":1440,"Ġparadig":1441,"ICSE":1442,"like":1443,"Ġreport":1444,"Ġ2020":1445,"Ġmessages":1446,"Ġdifferen":1447,"cessing":1448,"sistent":1449,"Ġcontrol":1450,"Ġbroader":1451,"Ġbehavior":1452,"centric":1453,"inguistics":1454,"Ġartifacts":1455,"68":1456,"af":1457,"ati":1458,"ave":1459,"det":1460,"ive":1461,"itive":1462,"mer":1463,"med":1464,"ov":1465,"oop":1466,"tail":1467,"ument":1468,"ingly":1469,"orts":1470,"Ġcall":1471,"Ġcover":1472,"hether":1473,"Ġmak":1474,"Ġfam":1475,"ects":1476,"ecting":1477,"Ġopen":1478,"actions":1479,"Ġbased":1480,"cep":1481,"ĠAl":1482,"âĢĻ":1483,"ĠMing":1484,"olum":1485,"ified":1486,"Ġver":1487,"Ġsub":1488,"ivers":1489,"ĠWu":1490,"Ġuser":1491,"irical":1492,"uman":1493,"Ġaccuracy":1494,"ICL":1495,"ĠAnalysis":1496,"duces":1497,"ĠQi":1498,"Ġrepresentation":1499,"Ġdiagnos":1500,"Ġembedding":1501,"Ġcomponent":1502,"Ġrobustness":1503,"07":1504,"29":1505,"88":1506,"Ac":1507,"Con":1508,"OU":1509,"ced":1510,"https":1511,"lic":1512,"language":1513,"ring":1514,"tle":1515,"tain":1516,"ymp":1517,"Ġ5":1518,"ants":1519,"anomaly":1520,"res":1521,"alid":1522,"Ġfrequ":1523,"Ġfocus":1524,"Ġfollow":1525,"ĠLu":1526,"ĠLLaMA":1527,"ell":1528,"Ġinte":1529,"Ġeach":1530,"ĠSp":1531,"ĠSup":1532,"ĠID":1533,"igu":1534,"evidence":1535,"Ġproblem":1536,"Ġgr":1537,"Ġexp":1538,"ĠPre":1539,"Ġwithout":1540,"ĠJin":1541,"off":1542,"osium":1543,"Ġdetect":1544,"ĠThese":1545,"enges":1546,"Ġrecur":1547,"Ġ68":1548,"Ġheterogeneous":1549,"Ġstatements":1550,"Ġprovide":1551,"ĠJiang":1552,"ĠTrans":1553,"Ġimprove":1554,"Ġtoken":1555,"Ġknowledge":1556,"imilar":1557,"Ġdiffic":1558,"hua":1559,"Ġespecially":1560,"OUGE":1561,"ymposium":1562,"Ġintegr":1563,"04":1564,"05":1565,"40":1566,"64":1567,"En":1568,"RE":1569,"We":1570,"de":1571,"oud":1572,"paper":1573,"ron":1574,"task":1575,"wo":1576,"ww":1577,"yi":1578,"enti":1579,"erature":1580,"Ġsy":1581,"Ġsimilar":1582,"Ġanomal":1583,"Ġcand":1584,"Ġav":1585,"Ġappl":1586,"Ġll":1587,"Ġlight":1588,"rop":1589,"iterature":1590,"Ġdevel":1591,"Ġfew":1592,"etri":1593,"mpting":1594,"Ġins":1595,"Ġreview":1596,"Ġwhether":1597,"Ġthem":1598,"Ġboth":1599,"ung":1600,"agement":1601,"urbo":1602,"ĠYing":1603,"Ġhand":1604,"uld":1605,"Ġconfigur":1606,"ĠFor":1607,"eval":1608,"Ġproject":1609,"Ġnatural":1610,"Ġstream":1611,"Ġvs":1612,"Ġvalu":1613,"Ġ2021":1614,"ared":1615,"ĠJun":1616,"ĠJian":1617,"ĠEx":1618,"ĠDe":1619,"ĠDong":1620,"aph":1621,"app":1622,"ĠWen":1623,"ĠZhao":1624,"Ġparsers":1625,"ework":1626,"ortant":1627,"ichael":1628,"presentation":1629,"Ġdirectly":1630,"Ġrecent":1631,"epar":1632,"Ġrepresentations":1633,"Ġlabels":1634,"ensitive":1635,"Ġwindows":1636,"Ġprovid":1637,"Ġparameters":1638,"scale":1639,"Ġneed":1640,"Ġformat":1641,"Ġfeatures":1642,"ique":1643,"Ġmake":1644,"amples":1645,"weight":1646,"22":1647,"31":1648,"96":1649,"AR":1650,"An":1651,"Comp":1652,"PI":1653,"RCA":1654,"St":1655,"The":1656,"]).":1657,"ativ":1658,"cy":1659,"com":1660,"dr":1661,"een":1662,"face":1663,"gro":1664,"let":1665,"man":1666,"system":1667,"ĠâĢĵ":1668,"inal":1669,"ero":1670,"ert":1671,"Ġsever":1672,"Ġsyn":1673,"Ġpo":1674,"Ġliterature":1675,"Ġdatas":1676,"ĠLinguistics":1677,"Ġinv":1678,"Ġreduce":1679,"Ġword":1680,"active":1681,"ĠSymposium":1682,"ĠINFO":1683,"ĠMichael":1684,"Ġthen":1685,"event":1686,"ures":1687,"Ġven":1688,"sisten":1689,"Ġexecution":1690,"ĠPr":1691,"ĠZheng":1692,"ĠEv":1693,"Ġmodeling":1694,"ivacy":1695,"Ġpretraining":1696,"Ġassist":1697,"irit":1698,"Ġbefore":1699,"Ġincre":1700,"ected":1701,"tenance":1702,"rection":1703,"Ġcontextual":1704,"Ġscale":1705,"ences":1706,"iii":1707,"Ġresearch":1708,"tuned":1709,"ĠRoot":1710,"ĠComputing":1711,"ĠComputational":1712,"Ġcontroll":1713,"Ġexplicitly":1714,"tribut":1715,"Ġremains":1716,"LEU":1717,"Ġframework":1718,"Ġtrade":1719,"Ġcorpus":1720,"standing":1721,"Ġdifferent":1722,"ĠSpirit":1723,"Ġdifficult":1724,"Ġcandid":1725,"Ġdeveloper":1726,"etrieval":1727,"48":1728,"Ag":1729,"ISS":1730,"PA":1731,"PC":1732,"ST":1733,"Table":1734,"ax":1735,"ci":1736,"cord":1737,"dec":1738,"free":1739,"has":1740,"ould":1741,"qi":1742,"ule":1743,"wen":1744,"window":1745,"Ã¡":1746,"Ġ11":1747,"inj":1748,"inter":1749,"reg":1750,"retriev":1751,"Ġtreat":1752,"Ġsecurity":1753,"arning":1754,"Ġcur":1755,"Ġport":1756,"isk":1757,"isting":1758,"Ġmod":1759,"Ġmust":1760,"entr":1761,"ett":1762,"etter":1763,"etrics":1764,"Ġinser":1765,"Ġrely":1766,"Ġrelevant":1767,"Ġour":1768,"ĠSun":1769,"ĠSystem":1770,"2020":1771,"ĠAI":1772,"ĠAr":1773,"ĠCl":1774,"urther":1775,"ĠYi":1776,"ĠYic":1777,"adoop":1778,"ĠROUGE":1779,"Ġ2022":1780,"apid":1781,"Ġuses":1782,"struct":1783,"rent":1784,"Ġparser":1785,"Ġstrong":1786,"Ġadaptation":1787,"ĠShi":1788,"ibr":1789,"Ġdecomp":1790,"Ġlearn":1791,"Ġrepresentative":1792,"Ġselection":1793,"Ġlabeled":1794,"ather":1795,"etween":1796,"mptom":1797,"what":1798,"Ġencoder":1799,"includ":1800,"Ġextraction":1801,"finition":1802,"Ġ219":1803,"Ġworkflows":1804,"Ġfault":1805,"Ġcauses":1806,"Ġdescrip":1807,"Ġemphas":1808,"Ġlatency":1809,"Ġreuse":1810,"olume":1811,"46":1812,"70":1813,"76":1814,"Th":1815,"cl":1816,"emp":1817,"ears":1818,"eff":1819,"ges":1820,"iers":1821,"lp":1822,"lag":1823,"ne":1824,"ood":1825,"ustr":1826,"yang":1827,"Ġtechn":1828,"Ġcateg":1829,"Ġline":1830,"head":1831,"Ġmo":1832,"its":1833,"Ġdem":1834,"Ġdomain":1835,"Ġfiel":1836,"Ġfirst":1837,"Ġfurther":1838,"icro":1839,"ication":1840,"ĠLin":1841,"ĠLyu":1842,"ash":1843,"acl":1844,"agent":1845,"Ġhybrid":1846,"Ġhave":1847,"ĠModel":1848,"ĠMeng":1849,"ĠFTA":1850,"ĠFGA":1851,"Ġvalid":1852,"Ġexamples":1853,"Ġiss":1854,"ĠGu":1855,"ĠDan":1856,"Ġrapid":1857,"Ġalign":1858,"ĠZhi":1859,"ffline":1860,"ĠâĢĻ":1861,"ibin":1862,"ible":1863,"mbigu":1864,"Ġunique":1865,"Ġsemi":1866,"Ġshould":1867,"Ġimportant":1868,"Ġfailures":1869,"Ġcorrect":1870,"Ġincidents":1871,"dustr":1872,"istor":1873,"BERTa":1874,"tribution":1875,"Ġparameter":1876,"paramet":1877,"ample":1878,"Ġdecisions":1879,"umentation":1880,"Ġfrequent":1881,"Ġrecurring":1882,"ĠTransactions":1883,"Ġsymptom":1884,"sistency":1885,"/.":1886,"30":1887,"86":1888,"94":1889,"LP":1890,"Pars":1891,"Re":1892,"Ro":1893,"Yes":1894,"]),":1895,"cause":1896,"ek":1897,"iency":1898,"jie":1899,"ma":1900,"metrics":1901,"nn":1902,"oun":1903,"ris":1904,"utions":1905,"vari":1906,"word":1907,"onom":1908,"onstr":1909,"related":1910,"Ġtarg":1911,"ora":1912,"Ġsequ":1913,"Ġsepar":1914,"Ġsensitive":1915,"Ġcap":1916,"Ġass":1917,"Ġaugment":1918,"Ġambigu":1919,"Ġless":1920,"Ġlay":1921,"ison":1922,"row":1923,"Ġmat":1924,"Ġdo":1925,"Ġfil":1926,"Ġfixed":1927,"ectiv":1928,"Ġinput":1929,"Ġinformation":1930,"Ġinstruction":1931,"action":1932,"Ġefficient":1933,"Ġearly":1934,"lement":1935,"Ġbetter":1936,"uning":1937,"ĠAutomated":1938,"ĠAPI":1939,"Ġtoward":1940,"ĠCoT":1941,"emb":1942,"ĠTao":1943,"Ġone":1944,"Ġhuman":1945,"Ġhistor":1946,"ithful":1947,"ĠHow":1948,"ĠHao":1949,"Ġnum":1950,"Ġnetwork":1951,"Ġnarr":1952,"Ġview":1953,"Ġprec":1954,"Ġrules":1955,"Ġrisk":1956,"ternal":1957,"ails":1958,"ĠLogs":1959,"logging":1960,"Ġend":1961,"achine":1962,"ĠOffline":1963,"Ġprompts":1964,"Ġsummary":1965,"Ġstrateg":1966,"ava":1967,"Ġscore":1968,"186":1969,"Ġ42":1970,"ĠYuan":1971,"Ġtype":1972,"Ġhighl":1973,"fficiency":1974,"ĠAcross":1975,"Ġclassification":1976,"Ġdesigns":1977,"finement":1978,"Ġanalytics":1979,"Ġupd":1980,"Ġlimited":1981,"Ġerror":1982,"Ġchallenges":1983,"Ġexplanation":1984,"eliability":1985,"Ġintro":1986,"Ġlightweight":1987,"Ġconfiguration":1988,"driven":1989,"34":1990,"60":1991,"74":1992,"80":1993,"84":1994,"Ev":1995,"URL":1996,"air":1997,"by":1998,"cal":1999,"ious":2000,"large":2001,"label":2002,"method":2003,"parsing":2004,"sel":2005,"sequence":2006,"where":2007,"ying":2008,"zh":2009,"âĨ":2010,"Ġ<":2011,"Ġ=":2012,"Ġti":2013,"Ġtim":2014,"tition":2015,"ening":2016,"erver":2017,"Ġtwo":2018,"orting":2019,"Ġsess":2020,"Ġsour":2021,"atGPT":2022,"Ġcle":2023,"Ġph":2024,"isy":2025,"Ġme":2026,"Ġmask":2027,"Ġmatch":2028,"ite":2029,"ick":2030,"ĠLanguage":2031,"asingly":2032,"echan":2033,"econd":2034,"ĠSch":2035,"ĠSection":2036,"oders":2037,"2015":2038,"ĠAU":2039,"uture":2040,"ident":2041,"ĠCode":2042,"ĠTask":2043,"âĢĶ":2044,"ĠFine":2045,"olic":2046,"olution":2047,"olutions":2048,"tick":2049,"ĠReliability":2050,"ĠHu":2051,"ĠHuo":2052,"Ġprop":2053,"Ġstand":2054,"Ġgu":2055,"Ġsug":2056,"Ġsupervis":2057,"though":2058,"expl":2059,"ĠPinj":2060,"izing":2061,"ĠED":2062,"ĠDi":2063,"apache":2064,"Ġalone":2065,"structure":2066,"ĠNew":2067,"ĠZhong":2068,"ailable":2069,"osit":2070,"ights":2071,"ĠXin":2072,"Ġgenerate":2073,"aching":2074,"Ġprog":2075,"Ġprivacy":2076,"Ġdefinition":2077,"diction":2078,"Ġsystematic":2079,"Ġcho":2080,"Ġchain":2081,"ibility":2082,"Ġunsupervised":2083,"Ġ34":2084,"Ġvariable":2085,"Ġmanual":2086,"Ġmaintenance":2087,"bert":2088,"Ġ98":2089,"Ġreliable":2090,"ĠLee":2091,"Ġextracted":2092,"Ġtransform":2093,"Ġboundaries":2094,"ublic":2095,"Ġinclude":2096,"RAG":2097,"ities":2098,"Ġrefl":2099,"compon":2100,"Ġrarely":2101,"templates":2102,"ĠHongyu":2103,"Ġversus":2104,"lock":2105,"Ġoptim":2106,"Ġbackb":2107,"Ġcoverage":2108,"Ġgraph":2109,"Ġdevelopers":2110,"Ġmotiv":2111,"Ġsequences":2112,"embedd":2113,"echanis":2114,"ĠPinjia":2115,"*>":2116,"02":2117,"52":2118,"54":2119,"61":2120,"99":2121,"AC":2122,"AI":2123,"Ad":2124,"Fig":2125,"No":2126,"Ops":2127,"cor":2128,"check":2129,"der":2130,"eps":2131,"ged":2132,"hang":2133,"how":2134,"high":2135,"hao":2136,"hadoop":2137,"mo":2138,"oh":2139,"run":2140,"ually":2141,"van":2142,"xi":2143,"yond":2144,"ze":2145,"Ġif":2146,"ina":2147,"inu":2148,"ints":2149,"inally":2150,"inery":2151,"antics":2152,"ons":2153,"ones":2154,"only":2155,"read":2156,"resh":2157,"enge":2158,"Ġtuning":2159,"Ġcore":2160,"Ġabo":2161,"Ġlines":2162,"Ġlik":2163,"Ġmul":2164,"Ġmechanis":2165,"Ġdoc":2166,"Ġfull":2167,"Ġflag":2168,"ĠLear":2169,"ether":2170,"mpirical":2171,"step":2172,"Ġindustr":2173,"Ġwid":2174,"Ġother":2175,"Ġthere":2176,"ĠSummar":2177,"odal":2178,"abor":2179,"abil":2180,"ĠAt":2181,"omm":2182,"ĠTian":2183,"ĠYint":2184,"107":2185,"ults":2186,"Ġcond":2187,"Ġconven":2188,"ĠMar":2189,"even":2190,"Ġprocess":2191,"Ġstatic":2192,"Ġsupervised":2193,"Ġexempl":2194,"ĠPar":2195,"ĠBenchmark":2196,"ĠGen":2197,"essage":2198,"Logger":2199,"Ġrank":2200,"Ġcomput":2201,"Ġcomplet":2202,"Ġtrained":2203,"timodal":2204,"Ġmetric":2205,"ĠXie":2206,"Ġ103":2207,"Ġbeyond":2208,"Ġaction":2209,"achinery":2210,"often":2211,"ĠKar":2212,"Ġprior":2213,"constr":2214,"aluation":2215,"Ġsummarize":2216,"Ġadaptive":2217,"Ġoperators":2218,"3639":2219,"Ġiter":2220,"indings":2221,"Ġworks":2222,"Ġscoring":2223,"Ġcloud":2224,"Ġunified":2225,"Ġunderstanding":2226,"ĠAnomaly":2227,"Ġpredict":2228,"Ġrecords":2229,"ĠChang":2230,"book":2231,"Ġevaluated":2232,"ĠAccuracy":2233,"359":2234,"crimin":2235,"ological":2236,"390":2237,"aths":2238,"Ġperform":2239,"Ġperformance":2240,"which":2241,"Ġboundary":2242,"Ġdepends":2243,"Ġfaithful":2244,"Ġcomparison":2245,"Ġidentifiers":2246,"Ġnoisy":2247,"template":2248,"directly":2249,"Ġchanges":2250,"Ġparadigms":2251,"Ġfamily":2252,"ception":2253,"Ġsimilarity":2254,"Ġanomalies":2255,"Ġavailable":2256,"Ġdatasets":2257,"Ġvenues":2258,"tributed":2259,"Ġcandidate":2260,"ISSRE":2261,"retrieval":2262,"ĠYichen":2263,"Ġdecomposition":2264,"Ġdemonstr":2265,"parameter":2266,"onomy":2267,"Ġhistorical":2268,"âĨĴ":2269,"ĠAUC":2270,"structured":2271,"Ġmultimodal":2272,"ĠYintong":2273,"06":2274,"220":2275,"44":2276,"57":2277,"71":2278,"73":2279,"NI":2280,"OR":2281,"PE":2282,"To":2283,"Tr":2284,"bin":2285,"back":2286,"base":2287,"cost":2288,"data":2289,"ef":2290,"fl":2291,"gth":2292,"greg":2293,"hance":2294,"impl":2295,"jun":2296,"ki":2297,"ld":2298,"lin":2299,"les":2300,"lish":2301,"no":2302,"normal":2303,"ra":2304,"rag":2305,"set":2306,"sive":2307,"turbo":2308,"uch":2309,"vir":2310,"wor":2311,"wei":2312,"yth":2313,"rep":2314,"representation":2315,"refinement":2316,"reening":2317,"til":2318,"ties":2319,"ern":2320,"erts":2321,"Ġter":2322,"oriz":2323,"Ġse":2324,"Ġserv":2325,"Ġcache":2326,"Ġcases":2327,"Ġcheck":2328,"Ġpure":2329,"Ġlarg":2330,"Ġmis":2331,"Ġmachine":2332,"ital":2333,"ĠLA":2334,"ectr":2335,"Ġinfer":2336,"Ġefficiency":2337,"ĠSheng":2338,"Ġbetween":2339,"usp":2340,"uss":2341,"ably":2342,"abul":2343,"ĠIt":2344,"omin":2345,"ild":2346,"igital":2347,"ĠTechn":2348,"Ġhas":2349,"Ġhard":2350,"Ġcons":2351,"ames":2352,"ters":2353,"ading":2354,"ĠRA":2355,"ĠRa":2356,"ĠRetrieval":2357,"ĠInformation":2358,"Ġvect":2359,"Ġeven":2360,"Ġexample":2361,"ĠPet":2362,"ĠPeng":2363,"ĠParsing":2364,"ĠBo":2365,"ĠBen":2366,"Ġwithin":2367,"arse":2368,"ĠJing":2369,"unded":2370,"ĠDet":2371,"LogB":2372,"Ġrather":2373,"111":2374,"rength":2375,"ĠNe":2376,"ĠNetwork":2377,"ĠZhu":2378,"udg":2379,"Ġ13":2380,"ocabul":2381,"emplate":2382,"Ġparsed":2383,"Ġcompare":2384,"Ġcomplex":2385,"ims":2386,"verall":2387,"ĠXia":2388,"Ġ100":2389,"Ġincon":2390,"ĠOpen":2391,"ĠKa":2392,"Ġsummaries":2393,"Ġadop":2394,"ĠShu":2395,"traces":2396,"tractive":2397,"llm":2398,"ĠChatGPT":2399,"duction":2400,"Ġpractic":2401,"Ġshif":2402,"Ġshift":2403,"Ġattractive":2404,"Ġreposit":2405,"Ġsurface":2406,"abled":2407,"Ġlabeling":2408,"Ġresult":2409,"000":2410,"utomatic":2411,"Ġtypes":2412,"ĠThey":2413,"ĠRoBERTa":2414,"Ġagentic":2415,"Ġlevels":2416,"Ġreliability":2417,"Ġtransfer":2418,"Ġspace":2419,"Ġlocal":2420,"Ġtokens":2421,"Ġtraditional":2422,"Ġevolving":2423,"rittle":2424,"Ġchallenge":2425,"Ġcombine":2426,"Ġparadigm":2427,"atis":2428,"detection":2429,"Ġmaking":2430,"Ġmakes":2431,"iversity":2432,"Ġdiagnostic":2433,"ential":2434,"Ġstreams":2435,"Ġvalues":2436,"Ġseveral":2437,"Ġincreasingly":2438,"axonomy":2439,"cordia":2440,"Ġstronger":2441,"Ġissues":2442,"Ġnumber":2443,"18653":2444,"Ġ<*>":2445,"tickets":2446,"Ġsupervision":2447,"Ġabout":2448,"ĠLearning":2449,"Ġwidely":2450,"viron":2451,"ython":2452,"orizon":2453,"Ġlargely":2454,"58":2455,"59":2456,"AD":2457,"BN":2458,"Ex":2459,"For":2460,"Paper":2461,"SBN":2462,"TRA":2463,"Un":2464,"])":2465,"cing":2466,"code":2467,"dl":2468,"dis":2469,"dex":2470,"gation":2471,"io":2472,"iage":2473,"lo":2474,"nal":2475,"oid":2476,"pt":2477,"ran":2478,"sem":2479,"summar":2480,"typ":2481,"when":2482,"xin":2483,"zero":2484,"Ġ)":2485,"Ġill":2486,"Ġzero":2487,"ink":2488,"ining":2489,"anion":2490,"rel":2491,"ret":2492,"rete":2493,"relevant":2494,"eness":2495,"era":2496,"Ġspecific":2497,"arn":2498,"arch":2499,"edium":2500,"Ġcues":2501,"Ġcaching":2502,"Ġaut":2503,"herent":2504,"Ġmean":2505,"Ġded":2506,"Ġfree":2507,"Ġfuture":2508,"ics":2509,"icated":2510,"ications":2511,"ĠLl":2512,"ecall":2513,"Ġinform":2514,"Ġreg":2515,"Ġrelated":2516,"Ġreducing":2517,"acm":2518,"Ġtheir":2519,"learning":2520,"ĠSong":2521,"ĠSecurity":2522,"ĠServ":2523,"Ġbec":2524,"Ġbert":2525,"Ġbrittle":2526,"ĠISBN":2527,"ange":2528,"lying":2529,"ĠAg":2530,"ided":2531,"identif":2532,"ilun":2533,"ilies":2534,"ĠCan":2535,"urn":2536,"ĠTo":2537,"ĠTom":2538,"ĠTong":2539,"ĠYif":2540,"ĠYong":2541,"ĠYilun":2542,"pert":2543,"Ġhyp":2544,"ular":2545,"Ġconver":2546,"Ġconsistency":2547,"ami":2548,"ĠMachinery":2549,"ĠFa":2550,"ĠFailure":2551,"ĠFei":2552,"ade":2553,"ĠRen":2554,"Ġproduce":2555,"Ġnon":2556,"Ġnew":2557,"Ġstar":2558,"Ġstack":2559,"Ġstyle":2560,"Ġstrength":2561,"Ġgo":2562,"Ġvocabul":2563,"ĠZhen":2564,"ĠBLEU":2565,"ĠGener":2566,"ĠJeff":2567,"ĠJava":2568,"ucin":2569,"ĠData":2570,"Ġpretrained":2571,"Ġalong":2572,"tok":2573,"top":2574,"tool":2575,"allucin":2576,"ttp":2577,"Ġtriage":2578,"ored":2579,"Ġenti":2580,"former":2581,"ĠKang":2582,"tention":2583,"conf":2584,"dicating":2585,"Ġsummarizes":2586,"Ġoperations":2587,"pecial":2588,"ĠShimin":2589,"Prompt":2590,"serve":2591,"Ġscal":2592,"Ġappear":2593,"Ġ33":2594,"Ġsemantics":2595,"Ġpredicted":2596,"Ġ46":2597,"ĠChris":2598,"duced":2599,"Ġshow":2600,"Ġevaluates":2601,"asoning":2602,"Ġquery":2603,"Ġresp":2604,"Ġdiffer":2605,"oundation":2606,"Ġdisc":2607,"Ġweak":2608,"ĠAcc":2609,"Ġcommun":2610,"Ġwhereas":2611,"Ġsurveys":2612,"error":2613,"Ġclassic":2614,"ournal":2615,"Ġaggreg":2616,"Ġencoders":2617,"Ġ979":2618,"othes":2619,"Ġrunbook":2620,"Ġlocation":2621,"Ġlocalization":2622,"Ġadditional":2623,"Ġtools":2624,"Ġincluding":2625,"Ġcoun":2626,"Ġframes":2627,"Ġcorpora":2628,"Ġbenchmarks":2629,"Ġdescrib":2630,"Ġobservability":2631,"Ġerrors":2632,"Ġexplanations":2633,"Ġcombines":2634,"Ġcollabor":2635,"ĠManagement":2636,"merging":2637,"Ġcalls":2638,"Ġfamilies":2639,"Ġverification":2640,"research":2641,"ĠIDs":2642,"offs":2643,"Ġintegration":2644,"Web":2645,"www":2646,"Ġllm":2647,"Ġllms":2648,"Ġprovides":2649,"atives":2650,"Ġassistance":2651,"Ġcontrollability":2652,"Ġdescription":2653,"class":2654,"Ġcategory":2655,"Ġfields":2656,"Ġvalidation":2657,"Parser":2658,"variable":2659,"Ġaugmentation":2660,"Ġambiguous":2661,"Ġlayers":2662,"ĠHowever":2663,"Ġnarratives":2664,"Ġstrategies":2665,"Eval":2666,"zhi":2667,"Ġsession":2668,"Ġchoices":2669,"component":2670,"Ġlikely":2671,"Ġmechanisms":2672,"Ġindustrial":2673,"Ġdemonstrations":2674,"world":2675,"Ġillustr":2676,"%)":2677,"09":2678,"120":2679,"27":2680,"51":2681,"72":2682,"83":2683,"ASE":2684,"CE":2685,"CS":2686,"Cl":2687,"CTRA":2688,"ET":2689,"FT":2690,"Hs":2691,"Ms":2692,"SA":2693,"Sc":2694,"Server":2695,"Turbo":2696,"au":2697,"aud":2698,"ball":2699,"col":2700,"coder":2701,"coun":2702,"eh":2703,"efficient":2704,"fix":2705,"first":2706,"gram":2707,"hui":2708,"kh":2709,"ler":2710,"ling":2711,"lap":2712,"mit":2713,"multi":2714,"match":2715,"miss":2716,"ni":2717,"other":2718,"pattern":2719,"pose":2720,"qing":2721,"rd":2722,"upl":2723,"uild":2724,"writ":2725,"Ġ\"":2726,"Ġ,":2727,"ĠĊ":2728,"Ġed":2729,"anti":2730,"anth":2731,"ories":2732,"Ġser":2733,"Ġsecond":2734,"arrow":2735,"atement":2736,"Ġpage":2737,"Ġpoint":2738,"Ġpaths":2739,"Ġlow":2740,"Ġlever":2741,"Ġlist":2742,"ogether":2743,"root":2744,"Ġmon":2745,"Ġmem":2746,"Ġmiss":2747,"itect":2748,"Ġdomin":2749,"Ġfinal":2750,"Ġfrag":2751,"entence":2752,"ĠLew":2753,"ĠLiao":2754,"etric":2755,"elf":2756,"Ġinj":2757,"Ġindirectly":2758,"Ġindex":2759,"Ġrel":2760,"Ġreduces":2761,"Ġwas":2762,"Ġout":2763,"Ġeas":2764,"Ġbod":2765,"oding":2766,"aging":2767,"ĠISS":2768,"ĠAb":2769,"ĠAm":2770,"uring":2771,"urvey":2772,"urpose":2773,"igure":2774,"ĠTang":2775,"ĠTable":2776,"ĠTim":2777,"ĠTse":2778,"âĢľ":2779,"100":2780,"106":2781,"1016":2782,"1007":2783,"Ġconn":2784,"Ġconsistent":2785,"ama":2786,"amb":2787,"tering":2788,"ĠMi":2789,"ĠFu":2790,"ĠFull":2791,"ĠFigure":2792,"aditional":2793,"Ġprocessing":2794,"Ġstage":2795,"Ġstabil":2796,"Ġvolume":2797,"exts":2798,"Ġexact":2799,"ĠPei":2800,"ĠGr":2801,"ĠEmpirical":2802,"ĠDuan":2803,"Logs":2804,"Logging":2805,"Ġall":2806,"Ġalerts":2807,"118":2808,"ĠZhuang":2809,"Ġ192":2810,"ighb":2811,"times":2812,"Ġenhan":2813,"Ġgeneral":2814,"ĠKu":2815,"cont":2816,"rections":2817,"ĠShao":2818,"Ġchron":2819,"Ġexplo":2820,"Ġdirection":2821,"Prompting":2822,"Ġcla":2823,"Ġclust":2824,"Ġapproach":2825,"Ġappears":2826,"ĠAnd":2827,"ope":2828,"Ġ47":2829,"ĠYuxin":2830,"agnos":2831,"Ġvariants":2832,"168":2833,"Ġ64":2834,"Ġreporting":2835,"Ġ2019":2836,"abling":2837,"Ġcorrel":2838,"Ġmainly":2839,"Ġhigher":2840,"Ġdistribution":2841,"Ġsemantically":2842,"prompting":2843,"service":2844,"craf":2845,"nowball":2846,"ĠWeibin":2847,"Ġcommonly":2848,"Ġkeyword":2849,"Ġspans":2850,"Ġaddition":2851,"Ġaddress":2852,"Ġconcrete":2853,"Ġneural":2854,"LECTRA":2855,"Ġsmaller":2856,"Ġplac":2857,"eyond":2858,"iques":2859,"Ġevolution":2860,"7503":2861,"ierarch":2862,"Ġrequirements":2863,"models":2864,"rasing":2865,"Ġempirical":2866,"Ġability":2867,"ĠSuch":2868,"Ġversions":2869,"Ġinterpretation":2870,"ĠThunderbirdYes":2871,"Ġyet":2872,"Ġcollection":2873,"Ġoption":2874,"Across":2875,"Ġfocuses":2876,"ĠLuke":2877,"Ġdetectors":2878,"tasks":2879,"Ġapplied":2880,"ĠExpl":2881,"Anomaly":2882,"Stage":2883,"Ġsynt":2884,"Ġwording":2885,"Agent":2886,"Agentic":2887,"etty":2888,"ĠSystems":2889,"ĠAIOps":2890,"ibrary":2891,"including":2892,"empor":2893,"Ġtechniques":2894,"aclanth":2895,"ĠZhihan":2896,"Root":2897,"Ġcapability":2898,"Ġprecision":2899,"Ġsource":2900,"Ġsugges":2901,"Ġprogram":2902,"Ġbackbones":2903,"Ġdocumentation":2904,"Ġconventions":2905,"Ġexemplars":2906,"constrained":2907,"3597503":2908,"criminative":2909,"hancement":2910,"erns":2911,"Ġterms":2912,"Ġpurely":2913,"ĠRAG":2914,"ĠDetection":2915,"Ġshifts":2916,"Ġmeaning":2917,"Ġhypothes":2918,"Ġcollaboration":2919,"Hsun":2920,"ĠLewis":2921,"crafted":2922,"nowballing":2923,"ierarchical":2924,"aclanthology":2925,"121":2926,"33":2927,"3390":2928,"67":2929,"81":2930,"82":2931,"Benchmark":2932,"BLEU":2933,"Ch":2934,"DE":2935,"GD":2936,"Ho":2937,"IG":2938,"IP":2939,"Journal":2940,"LD":2941,"LLaMA":2942,"NLP":2943,"RR":2944,"Rules":2945,"Retrieval":2946,"SO":2947,"Software":2948,"WS":2949,"aj":2950,"but":2951,"bug":2952,"can":2953,"call":2954,"cross":2955,"eve":2956,"egr":2957,"ered":2958,"findings":2959,"gent":2960,"ha":2961,"hong":2962,"hand":2963,"host":2964,"iate":2965,"ls":2966,"lectr":2967,"library":2968,"ming":2969,"mod":2970,"message":2971,"na":2972,"ner":2973,"not":2974,"nlp":2975,"pass":2976,"purpose":2977,"qian":2978,"rank":2979,"sp":2980,"ses":2981,"sion":2982,"urop":2983,"util":2984,"volume":2985,"way":2986,"wise":2987,"Ġ:":2988,"Ġ;":2989,"Ġ36":2990,"Ġ24":2991,"Ġtickets":2992,"into":2993,"instruction":2994,"onal":2995,"real":2996,"rehen":2997,"represent":2998,"refl":2999,"Ġtre":3000,"Ġtail":3001,"Ġtaxonomy":3002,"alone":3003,"Ġsch":3004,"Ġsection":3005,"Ġsusp":3006,"Ġspecial":3007,"arger":3008,"edul":3009,"atab":3010,"Ġcit":3011,"Ġcentr":3012,"Ġpot":3013,"Ġpublic":3014,"Ġam":3015,"Ġaware":3016,"Ġautomatic":3017,"Ġlo":3018,"ising":3019,"Ġmiti":3020,"Ġdigital":3021,"Ġfit":3022,"Ġfail":3023,"ently":3024,"entory":3025,"ict":3026,"icse":3027,"icious":3028,"ĠLevel":3029,"asc":3030,"asures":3031,"Ġinf":3032,"Ġinstr":3033,"Ġread":3034,"Ġrecon":3035,"acle":3036,"Ġeith":3037,"ĠSe":3038,"ĠSi":3039,"ĠSci":3040,"ĠSIG":3041,"Ġlogged":3042,"use":3043,"usion":3044,"ĠApp":3045,"Ġtoo":3046,"Ġtoler":3047,"ilin":3048,"ĠCause":3049,"ĠCui":3050,"emnlp":3051,"ĠYan":3052,"ĠYun":3053,"ĠYork":3054,"ĠYao":3055,"ainst":3056,"108":3057,"ĠMat":3058,"ĠMoh":3059,"ĠFeng":3060,"Ġthus":3061,"chitect":3062,"ada":3063,"adaptation":3064,"old":3065,"ĠRu":3066,"ĠInt":3067,"ĠInstead":3068,"ĠHan":3069,"Ġproactive":3070,"Ġproduction":3071,"Ġnarrow":3072,"Ġstatis":3073,"Ġgap":3074,"Ġgiven":3075,"Ġsufficient":3076,"Ġsuite":3077,"than":3078,"through":3079,"extrac":3080,"Ġexternal":3081,"Ġexception":3082,"Ġ2026":3083,"ĠPrec":3084,"ĠPython":3085,"ĠZero":3086,"ĠZibin":3087,"areful":3088,"ĠGuo":3089,"ĠJared":3090,"quality":3091,"ived":3092,"ĠDu":3093,"ote":3094,"ĠUSA":3095,"Ġpreserve":3096,"115":3097,"119":3098,"ĠNY":3099,"press":3100,"Ġ145":3101,"ĠLogging":3102,"Ġcompact":3103,"iming":3104,"fei":3105,"Ġcontent":3106,"Ġcontinu":3107,"Ġcontexts":3108,"trieve":3109,"Ġenviron":3110,"ĠXi":3111,"Ġgenerating":3112,"Ġgeneralization":3113,"rich":3114,"ĠOverall":3115,"ĠKe":3116,"Ġdef":3117,"ĠConcordia":3118,"Ġadj":3119,"Ġadapt":3120,"364":3121,"Ġits":3122,"Ġexplain":3123,"Ġdirect":3124,"integr":3125,"Ġscreening":3126,"ICWS":3127,"impro":3128,"Ġunderlying":3129,"Ġ31":3130,"Ġ35":3131,"ards":3132,"utputs":3133,"LLMs":3134,"3728":3135,"Ġrecord":3136,"2508":3137,"SEM":3138,"ship":3139,"ĠQwen":3140,"ĠNov":3141,"Ġdecid":3142,"Ġ62":3143,"ĠCheng":3144,"oyer":3145,"Ġmanagement":3146,"ĠVan":3147,"Ġquick":3148,"estamp":3149,"odern":3150,"143":3151,"Ġhead":3152,"Ġhelp":3153,"ense":3154,"Ġdist":3155,"Ġdistributed":3156,"Ġwere":3157,"problem":3158,"International":3159,"Ġoverhead":3160,"Ġconstrained":3161,"Ġconstruction":3162,"Ġkeep":3163,"Ġwindowing":3164,"Ġagents":3165,"Ġagainst":3166,"Ġsupports":3167,"Ġimproves":3168,"Ġspan":3169,"lemoyer":3170,"Ġ188":3171,"Ġconcerns":3172,"require":3173,"Ġsometimes":3174,"generated":3175,"Ġcomparability":3176,"Ġplace":3177,"eyang":3178,"ĠRepresent":3179,"ĠRepresentation":3180,"venue":3181,"vesti":3182,"Ġobserved":3183,"Ġjoint":3184,"Ġlater":3185,"Ġorganized":3186,"ĠPrompt":3187,"mediation":3188,"Ġdiagnostics":3189,"ellig":3190,"ĠJinyang":3191,"Ġdetector":3192,"Engineering":3193,"Encoder":3194,"Ġanomalous":3195,"Ġavoid":3196,"Ġinsp":3197,"Ġvalue":3198,"ARN":3199,"Ġseverity":3200,"Ġpoints":3201,"decoder":3202,"Ġcurrent":3203,"ettlemoyer":3204,"Ġinsertion":3205,"Ġrelying":3206,"Ġtarget":3207,"Ġtargets":3208,"Ġmatters":3209,"8400":3210,"Ġpropag":3211,"Ġstandard":3212,"vances":3213,"Ġtherefore":3214,"ĠSummary":3215,"Ġcondition":3216,"Ġactionable":3217,"Ġvectors":3218,"Ġinconsistent":3219,"Ġrepository":3220,"Ġinformative":3221,"ĠAgentic":3222,"ĠYifan":3223,"ĠGeneration":3224,"topher":3225,"Ġentities":3226,"ĠChristopher":3227,"Ġ9798400":3228,"Ġrunbooks":3229,"Ġcounts":3230,"aude":3231,"Ġbody":3232,"ĠZhuangbin":3233,"Ġexploit":3234,"Ġclaims":3235,"Ġclustering":3236,"Benchmarks":3237,"Hoang":3238,"bugging":3239,"Ġschedul":3240,"Ġcentral":3241,"Ġeither":3242,"ĠApproaches":3243,"Ġscheduling":3244,"025":3245,"136":3246,"123":3247,"300":3248,"41":3249,"50":3250,"66":3251,"630":3252,"90":3253,"91":3254,"95":3255,"97":3256,"=*":3257,"={":3258,"As":3259,"Code":3260,"DA":3261,"Dec":3262,"FSE":3263,"Finally":3264,"Gen":3265,"Gener":3266,"Given":3267,"Hybrid":3268,"ID":3269,"IJ":3270,"IS":3271,"Id":3272,"Jetty":3273,"Level":3274,"OD":3275,"PP":3276,"Pr":3277,"Parsing":3278,"SM":3279,"XX":3280,"be":3281,"ca":3282,"cas":3283,"caus":3284,"cial":3285,"dif":3286,"eek":3287,"fit":3288,"fter":3289,"fri":3290,"focus":3291,"gu":3292,"imar":3293,"iors":3294,"jor":3295,"lps":3296,"lama":3297,"maining":3298,"net":3299,"ob":3300,"oren":3301,"pi":3302,"pars":3303,"pages":3304,"peng":3305,"ry":3306,"sk":3307,"son":3308,"sing":3309,"sof":3310,"sequ":3311,"small":3312,"security":3313,"ton":3314,"ump":3315,"uoc":3316,"ved":3317,"vers":3318,"valu":3319,"words":3320,"zhe":3321,"Â·":3322,"Ġent":3323,"Ġ45":3324,"Ġ26":3325,"Ġera":3326,"inf":3327,"ini":3328,"inary":3329,"indicating":3330,"anation":3331,"onics":3332,"reLog":3333,"tian":3334,"tially":3335,"enabled":3336,"eries":3337,"erge":3338,"erformance":3339,"Ġtest":3340,"Ġtogether":3341,"Ġtempor":3342,"esting":3343,"Ġspl":3344,"Ġsolutions":3345,"arm":3346,"eds":3347,"ater":3348,"atency":3349,"Ġcapt":3350,"Ġcareful":3351,"Ġpers":3352,"Ġposition":3353,"Ġpolic":3354,"Ġaim":3355,"Ġlead":3356,"Ġlink":3357,"Ġlarger":3358,"ogn":3359,"istic":3360,"ists":3361,"rouping":3362,"hel":3363,"hema":3364,"Ġmap":3365,"Ġmicro":3366,"Ġmuch":3367,"itoring":3368,"Ġder":3369,"Ġdel":3370,"Ġdatab":3371,"Ġfac":3372,"Ġfoundation":3373,"ĠLing":3374,"ĠLMs":3375,"eth":3376,"etch":3377,"elow":3378,"elines":3379,"mpro":3380,"assis":3381,"eck":3382,"stage":3383,"statement":3384,"Ġinst":3385,"Ġiniti":3386,"Ġinternal":3387,"Ġinvesti":3388,"Ġrewrit":3389,"Ġremediation":3390,"Ġremaining":3391,"actic":3392,"across":3393,"actical":3394,"Ġemit":3395,"lements":3396,"ĠSw":3397,"ĠSub":3398,"ĠSimil":3399,"ĠScal":3400,"ĠSentence":3401,"ĠSelf":3402,"Ġbest":3403,"Ġbene":3404,"Ġblock":3405,"Ġbudg":3406,"Ġbuild":3407,"207":3408,"unc":3409,"aged":3410,"agentic":3411,"ĠAlex":3412,"utting":3413,"Ġtop":3414,"ili":3415,"ĠCor":3416,"ĠCar":3417,"ĠCai":3418,"ĠComm":3419,"try":3420,"tructure":3421,"trast":3422,"ember":3423,"ĠTemplate":3424,"2021":3425,"2022":3426,"103":3427,"Ġhorizon":3428,"Ġhallucin":3429,"Ġforms":3430,"ulation":3431,"aman":3432,"ĠMe":3433,"ĠMain":3434,"ĠMost":3435,"ĠMay":3436,"ĠMetric":3437,"ĠFl":3438,"ĠFinally":3439,"Ġthree":3440,"Ġthreat":3441,"evaluation":3442,"ineering":3443,"Ġord":3444,"adata":3445,"ifeng":3446,"ĠRI":3447,"ĠRecall":3448,"ĠInc":3449,"ĠIns":3450,"ĠInComp":3451,"ĠHa":3452,"ĠHigh":3453,"ĠHeng":3454,"Ġproto":3455,"Ġproducing":3456,"Ġnorm":3457,"Ġnames":3458,"Ġstability":3459,"Ġsteps":3460,"Ġvis":3461,"that":3462,"Ġexten":3463,"Ġexpress":3464,"ĠZi":3465,"ĠZettlemoyer":3466,"izations":3467,"ĠBy":3468,"ĠBig":3469,"ĠBoth":3470,"ĠEd":3471,"ĠEff":3472,"plan":3473,"unding":3474,"ĠDen":3475,"ĠUser":3476,"Ġprev":3477,"Ġprefix":3478,"ĠWh":3479,"ĠWARN":3480,"Ġrig":3481,"Ġrich":3482,"Ġrule":3483,"ĠNar":3484,"ĠNatural":3485,"osing":3486,"oses":3487,"prediction":3488,"Ġ162":3489,"ĠLogB":3490,"allel":3491,"allenges":3492,"Ġdeter":3493,"Ġcompress":3494,"ores":3495,"logger":3496,"uming":3497,"Ġmetadata":3498,"Ġenabling":3499,"Ġbeing":3500,"Ġgeneric":3501,"Ġgenerators":3502,"format":3503,"ĠOr":3504,"ĠKim":3505,"ĠKuang":3506,"ĠKnowledge":3507,"Ġprimar":3508,"configur":3509,"Ġdeep":3510,"Ġdebugging":3511,"engineering":3512,"Ġsummarized":3513,"Ġoperate":3514,"ĠShan":3515,"213":3516,"Ġdirections":3517,"Ġpart":3518,"Ġscope":3519,"Ġclos":3520,"imple":3521,"150":3522,"155":3523,"156":3524,"159":3525,"Ġgrow":3526,"herefore":3527,"195":3528,"198":3529,"199":3530,"ipelines":3531,"ĠQing":3532,"Ġarchitect":3533,"akes":3534,"Ġshort":3535,"agnosis":3536,"Ġvariation":3537,"Ġvariability":3538,"166":3539,"Ġdecoder":3540,"Ġdecide":3541,"Ġdecoding":3542,"Ġreports":3543,"uality":3544,"riel":3545,"Ġmaintain":3546,"Ġresolutions":3547,"Ġresults":3548,"ixing":3549,"003":3550,"146":3551,"Ġheav":3552,"Ġhelps":3553,"prompt":3554,"everal":3555,"080":3556,"088":3557,"services":3558,"Instruct":3559,"Ġpersistent":3560,"ĠRober":3561,"ĠXue":3562,"ĠXuan":3563,"ĠWeb":3564,"ĠComputer":3565,"Ġ70":3566,"Ġ79":3567,"while":3568,"Ġobj":3569,"Ġencode":3570,"Ġcosts":3571,"Ġreliance":3572,"Ġreliably":3573,"Ġimproving":3574,"Ġtransl":3575,"endly":3576,"Ġsparse":3577,"Ġrequest":3578,"operator":3579,"Ġ214":3580,"Ġconcentr":3581,"ublish":3582,"Ġincluded":3583,"general":3584,"generation":3585,"ields":3586,"Ġ83":3587,"Ġanalyses":3588,"ataset":3589,"Ġplaus":3590,"Ġidentify":3591,"Ġidentified":3592,"Ġrefresh":3593,"Ġevolve":3594,"Ġlimitations":3595,"Ġmajor":3596,"ollowing":3597,"Ġrequires":3598,"rash":3599,"Ġeffective":3600,"Ġeffectiv":3601,"ĠStage":3602,"ĠAdaptive":3603,"ĠMethodology":3604,"Ġnormalized":3605,"Ġabstr":3606,"Ġreusable":3607,"Ġinterpretable":3608,"Ġinterpretability":3609,"ĠThunderbirdNo":3610,"Ġintent":3611,"Ġbackward":3612,"ĠProceedings":3613,"Ġchange":3614,"mediate":3615,"ĠMinghua":3616,"ĠuserId":3617,"Conference":3618,"Context":3619,"Ġfollowing":3620,"ĠPrediction":3621,"depend":3622,"ropy":3623,"Ġhandcrafted":3624,"ĠDef":3625,"Ġneeds":3626,"atively":3627,"grouping":3628,"Ġdataset":3629,"Ġinventory":3630,"Ġvenue":3631,"Ġassistants":3632,"Ġcandidates":3633,"cordingly":3634,"decision":3635,"windows":3636,"Ġ116":3637,"Ġtreats":3638,"Ġcurated":3639,"Ġmodes":3640,"Ġdescriptions":3641,"Ġemphasize":3642,"Ġemphasizes":3643,"Ġtechnical":3644,"Ġfield":3645,"Ġcorrectness":3646,"Ġfrequently":3647,"Ġsymptoms":3648,"Ġseparate":3649,"Ġfiltering":3650,"Ġinputs":3651,"lemented":3652,"Ġrisks":3653,"Ġscores":3654,"Ġhighlight":3655,"Ġupdates":3656,"Ġintroduces":3657,"iously":3658,"Ġtitle":3659,"Ġtimestamp":3660,"titioners":3661,"Ġclear":3662,"Ġphrasing":3663,"Ġmasked":3664,"Ġstandalone":3665,"Ġguard":3666,"thought":3667,"Ġchains":3668,"Ġreflecting":3669,"Ġgraphs":3670,"Ġmotivating":3671,"embedding":3672,"checking":3673,"move":3674,"runtime":3675,"Ġflagship":3676,"ĠMark":3677,"Ġfaithfulness":3678,"Tool":3679,"Trans":3680,"Ġservices":3681,"ĠShenglin":3682,"Ġpractices":3683,"load":3684,"type":3685,"Ġdedupl":3686,"Ġbecome":3687,"ĠCanada":3688,"ĠYongqian":3689,"ĠFault":3690,"Ġstarted":3691,"Ġgoal":3692,"Ġdiscuss":3693,"Ġcommunity":3694,"Ġillustrates":3695,"Score":3696,"grams":3697,"nipp":3698,"patterns":3699,"Ġedit":3700,"Ġserve":3701,"Ġmonitoring":3702,"Ġmemory":3703,"ĠISSN":3704,"Ġstabilize":3705,"ĠKumar":3706,"Ġchronological":3707,"Ġoptionally":3708,"ĠExploring":3709,"hosted":3710,"lsen":3711,"uropean":3712,"ĠMoham":3713,"Ġstatistics":3714,"ĠNovember":3715,"Ġquickly":3716,"elligence":3717,"IJC":3718,"friendly":3719,"assisted":3720,"ĠSimilarly":3721,"ĠInCompanion":3722,"Ġprotocol":3723,"Ġcompression":3724,"-/":3725,"125":3726,"135":3727,"139":3728,"56":3729,"562":3730,"642":3731,"78":3732,"87":3733,"98":3734,"Augmented":3735,"CI":3736,"Chen":3737,"De":3738,"Di":3739,"Dis":3740,"DPP":3741,"EM":3742,"Er":3743,"EOR":3744,"ELECTRA":3745,"HPC":3746,"Http":3747,"INFO":3748,"LO":3749,"Llama":3750,"Man":3751,"Medium":3752,"NN":3753,"NCE":3754,"Outputs":3755,"PD":3756,"Ps":3757,"Sv":3758,"Sem":3759,"SMA":3760,"SPE":3761,"TD":3762,"WL":3763,"ae":3764,"aol":3765,"ake":3766,"bu":3767,"bel":3768,"because":3769,"between":3770,"cs":3771,"cle":3772,"cutting":3773,"des":3774,"del":3775,"dle":3776,"doc":3777,"domain":3778,"dpi":3779,"dater":3780,"ea":3781,"fa":3782,"following":3783,"gan":3784,"gest":3785,"hib":3786,"horizon":3787,"http":3788,"hold":3789,"iol":3790,"iable":3791,"itiv":3792,"jiel":3793,"ks":3794,"kin":3795,"kai":3796,"latency":3797,"me":3798,"mad":3799,"mei":3800,"micro":3801,"mdpi":3802,"ny":3803,"nual":3804,"natural":3805,"post":3806,"pipelines":3807,"raw":3808,"rases":3809,"rails":3810,"su":3811,"sum":3812,"side":3813,"ski":3814,"tual":3815,"ux":3816,"ups":3817,"vÃ¡":3818,"xiao":3819,"ys":3820,"yan":3821,"yber":3822,"zi":3823,"zhen":3824,"zami":3825,"{}":3826,"Ã©":3827,"âĪ":3828,"âŁ":3829,"Ġ{":3830,"Ġim":3831,"Ġest":3832,"Ġimpl":3833,"Ġutil":3834,"ination":3835,"instr":3836,"ani":3837,"anu":3838,"online":3839,"onse":3840,"remain":3841,"reasoning":3842,"ention":3843,"erg":3844,"eri":3845,"erification":3846,"ali":3847,"orth":3848,"Ġsit":3849,"Ġsampl":3850,"Ġsimpl":3851,"Ġsnowballing":3852,"Ġanother":3853,"art":3854,"ately":3855,"attention":3856,"Ġcal":3857,"Ġcod":3858,"Ġcase":3859,"Ġcarr":3860,"Ġcrash":3861,"Ġpus":3862,"Ġpost":3863,"Ġpair":3864,"Ġpublish":3865,"Ġaver":3866,"Ġaff":3867,"Ġafter":3868,"Ġlab":3869,"ogonal":3870,"istr":3871,"istics":3872,"roll":3873,"Ġmix":3874,"Ġmining":3875,"Ġmade":3876,"Ġdivers":3877,"Ġfile":3878,"Ġfals":3879,"Ġfast":3880,"Ġflex":3881,"icial":3882,"ĠLoc":3883,"ĠLei":3884,"eting":3885,"eline":3886,"ste":3887,"stable":3888,"Ġindic":3889,"Ġinherent":3890,"Ġred":3891,"Ġrest":3892,"Ġrepl":3893,"Ġrevis":3894,"Ġreference":3895,"Ġresource":3896,"Ġreduced":3897,"Ġway":3898,"Ġoc":3899,"Ġoth":3900,"acent":3901,"lead":3902,"ĠSar":3903,"ĠSam":3904,"ĠSome":3905,"ĠServer":3906,"Ġbur":3907,"204":3908,"206":3909,"209":3910,"using":3911,"ustif":3912,"abi":3913,"ĠAp":3914,"uth":3915,"uting":3916,"idel":3917,"idong":3918,"iddle":3919,"ĠCo":3920,"ĠCao":3921,"uru":3922,"urning":3923,"ĠTB":3924,"ĠTing":3925,"ĠTop":3926,"ĠTest":3927,"ĠTie":3928,"ĠTesting":3929,"âĢ¢":3930,"ĠYin":3931,"101":3932,"102":3933,"109":3934,"1077":3935,"Ġhost":3936,"Ġhierarchical":3937,"Ġcontribut":3938,"termin":3939,"ĠMc":3940,"ĠMin":3941,"ĠMari":3942,"ĠMish":3943,"ĠMik":3944,"ĠMedium":3945,"ĠFew":3946,"ĠFrom":3947,"ĠFile":3948,"ĠFSE":3949,"ĠFast":3950,"ĠFung":3951,"events":3952,"eview":3953,"Ġorth":3954,"Ġoracle":3955,"chang":3956,"cheng":3957,"change":3958,"add":3959,"olas":3960,"olds":3961,"ifies":3962,"ifiable":3963,"ĠRes":3964,"ĠRong":3965,"ĠRui":3966,"ĠHadoop":3967,"Ġproduces":3968,"Ġnext":3969,"Ġname":3970,"Ġexisting":3971,"Ġexhib":3972,"ĠPat":3973,"ĠPTA":3974,"ĠPerformance":3975,"ĠPEr":3976,"ĠZeyang":3977,"ĠBog":3978,"ĠBav":3979,"ĠBase":3980,"Ġisol":3981,"ĠGao":3982,"ĠGuan":3983,"ĠJos":3984,"ĠJason":3985,"ĠJie":3986,"ĠJoint":3987,"ĠEr":3988,"ĠEric":3989,"ĠEfficient":3990,"ĠERR":3991,"ĠElectr":3992,"ĠEuropean":3993,"ĠDB":3994,"ĠDis":3995,"ĠDem":3996,"LogS":3997,"LogRe":3998,"LogAD":3999,"LogEval":4000,"ands":4001,"Ġusage":4002,"Ġrange":4003,"ĠNaman":4004,"udit":4005,"Ġ15":4006,"Ġ120":4007,"Ġ126":4008,"Ġ194":4009,"ĠLogEval":4010,"ighted":4011,"Ġcomprehen":4012,"Ġcomplements":4013,"Ġtrace":4014,"ferences":4015,"ĠLiang":4016,"ĠLipeng":4017,"Ġengine":4018,"Ġenough":4019,"Ġenrich":4020,"Ġgenerative":4021,"ugg":4022,"Ġacc":4023,"Ġactions":4024,"Ġincor":4025,"ĠOl":4026,"key":4027,"consum":4028,"recall":4029,"ĠContext":4030,"puts":4031,"Ġstrict":4032,"ĠSha":4033,"ĠShar":4034,"ĠShang":4035,"212":4036,"216":4037,"218":4038,"Ġchat":4039,"363":4040,"369":4041,"3626":4042,"3696":4043,"industr":4044,"Ġpartially":4045,"Ġparallel":4046,"Ġworkload":4047,"mbolic":4048,"ĠEnd":4049,"Ġclar":4050,"ICPC":4051,"ICDE":4052,"encies":4053,"liam":4054,"Ġunconstrained":4055,"Ġunstable":4056,"151":4057,"Ġ32":4058,"Ġ38":4059,"Ġ39":4060,"track":4061,"Ġpredicting":4062,"assive":4063,"Ġgroup":4064,"194":4065,"376":4066,"377":4067,"3749":4068,"3755":4069,"3746":4070,"full":4071,"Ġrecogn":4072,"252":4073,"258":4074,"ĠChao":4075,"ĠYue":4076,"yuan":4077,"ĠQuoc":4078,"ĠQuality":4079,"Ġcodebase":4080,"bounded":4081,"169":4082,"Ġattribution":4083,"Ġevaluations":4084,"oyal":4085,"Ġrepro":4086,"Ġrepair":4087,"asoner":4088,"ĠCompared":4089,"173":4090,"ĠVari":4091,"oupl":4092,"Ġqueries":4093,"Ġselecting":4094,"Ġinteract":4095}