#version: 0.2
i n
a n
o n
č Ċ
r e
t i
e n
e r
in g
Ġ t
a l
o r
e s
Ġ s
Ġ an
ti on
a r
e d
a t
Ġ c
Ġ p
Ġ a
Ġ l
Ġan d
o g
i s
r o
h e
Ġ m
i t
Ġ d
Ġ f
a tion
en t
i c
Ġ L
e t
e l
m p
a s
e c
s t
Ġ in
Ġ re
Ġ w
Ġ o
a c
Ġ e
Ġt he
l e
Ġ S
Ġl og
Ġ b
o d
2 0
c e
u n
u s
a b
Ġ [
a g
Ġ (
Ġ I
an g
l y
Ġ A
u t
o m
Ġt o
i d
i l
Ġ C
u r
t r
e m
i g
Ġ T
Ġo f
â Ģ
Ġ Y
a in
20 2
1 0
p er
Ġ on
L M
o w
al y
Ġ h
Ġf or
u l
Ġc on
a m
t er
v e
Ġ M
Ġ F
Ġt h
e v
in e
Ġ or
c h
a d
it h
o l
i f
ti c
it y
Ġ R
ĠI n
Ġ H
u re
Ġp ro
o mp
Ġ n
Ġs t
Ġ g
ĠL LM
Ġ v
Ġs u
t h
s is
Ġe v
e x
Ġe x
Ġ 202
Ġ P
Ġ Z
od el
ag e
i z
Ġ B
Ġw ith
ar s
t s
s s
a re
Ġ is
at e
Ġ G
Ġ J
t ing
Ġ E
q u
on g
p l
es s
Ġm odel
un d
i v
) ,
u c
ec tion
h en
Ġ D
as ed
mp l
L og
o t
er s
a p
Ġ U
Ġp re
an d
Ġa s
] .
o f
Ġ W
ex t
Ġ us
Ġ r
E E
Ġ al
st r
1 1
m ar
m ent
re n
ab le
Ġa re
b ased
en er
Ġ N
as k
ĠZ h
p s
ti ve
t o
i es
ter n
u d
a il
o s
p re
aly sis
Ġ 1
en ce
or m
ĠL og
o c
e mpl
al l
Ġp ars
ation al
Ġd et
ig h
i a
Ġc omp
i m
i r
u p
om aly
f e
g ing
âĢ ĵ
t t
g e
Ġlog s
Ġcon t
v er
Ġth at
Ġt r
e ar
o i
at ed
Ġw h
i on
tr i
o re
w are
fe ren
l og
or k
ĠL i
u m
ro ss
/ /
ti m
tt ps
at es
R L
a us
Ġm et
e w
Ġ en
Ġ X
Ġ 10
ang u
y st
Ġt ask
Ġb e
Ġg ener
angu age
il ity
Ġdet ection
yst em
. ,
p p
ation s
: //
al ly
u g
or g
Ġa c
Ġin c
ac h
of t
f f
o st
r ic
ĠY es
ĠU RL
f orm
Ġ O
v is
ing s
ent s
Ġ K
Ġt empl
Ġan omaly
Ġh ttps
ag es
ec t
feren ce
P T
Ġp r
Ġ202 5
Ġpars ing
k e
t en
per vis
c on
Ġan alysis
Ġd e
re c
er ing
und er
oft ware
ĠT h
Ġpro mp
Ġmodel s
h od
Ġb y
a y
i p
or t
ro m
en g
ig n
tri ev
4 5
ab ility
ĠC on
d ic
Ġ âĢ
ar i
Ġlog ging
od e
iz ation
al u
id ence
Ġsu m
a o
pervis ed
Ġsum mar
an ce
Ġc an
p ut
aus e
Ġs tr
Ġl anguage
ail ure
a per
s ent
Ġa d
Ġo per
p ec
Ġs ystem
ar ge
Ġd oi
EE E
g ine
Ġf rom
ic h
E R
i tion
l ine
ĠS h
uc t
2 1
or d
Ġc h
3 6
Ġ it
Ġre triev
Ġex pl
pre sent
p en
u pervised
âĢ Ŀ
Ġd i
gine ering
l ow
in d
Ġcont ext
P ro
Ġp ar
Ġw ork
tim e
i le
n ing
s er
ĠLLM s
tern ational
ĠâĢ ľ
i b
ain ing
ER T
m b
t ed
if ic
ĠZh ang
) .
y p
an s
Ġev idence
Ġ et
in t
tion s
ĠE n
a v
Ġs c
Ġc l
I C
o us
en c
Ġb ut
ĠIn ternational
Ġl arge
ic al
em ent
i mp
l i
u st
Ġ .
Ġ un
Ġ under
in es
ti f
Ġc om
Ġa pp
ĠS oftware
ĠA n
ĠG PT
1 5
C M
Ġ 3
Ġs em
tr ac
Ġgener ation
1 8
e i
ar d
ĠI EEE
ut put
tic s
Ġpre dic
L LM
s o
re am
or s
Ġp ages
ĠCon ference
a tive
o p
as s
ul ti
Ġg ro
Ġ202 4
11 45
Ġ ro
at tern
he re
ab el
ev el
uct ure
1 9
3 7
f ul
l l
Ġre c
Ġst ud
Ġmet hod
Ġac ross
2 5
S E
e qu
i ent
s h
Ġ 4
ed d
ed ings
Ġd es
le v
ce edings
ĠC h
ip el
d uc
at a
el y
ĠY u
ric s
C A
y u
Ġ Q
Ġ ar
an t
Ġc ode
Ġp aper
ac k
Ġpr ac
a k
b o
Ġs h
ag n
Ġv ari
ĠN o
Ġtask s
rec t
1 6
Ġ at
Ġd ec
Ġo utput
Ġev alu
Ġretriev al
i i
i an
Ġ +
Ġ 6
ar y
Ġthe y
ĠC hen
Ġn ot
Ġus ing
ear ch
Pro ceedings
o y
Ġ /
Ġ imp
an tic
Ġp attern
Ġp ipel
Ġm an
Ġf ailure
Ġre p
Ġtempl ates
m s
u al
th er
X iv
e p
h an
x iv
Ġ 20
Ġs ur
ar xiv
Ġl ear
ro ach
Ġm ess
as on
Ġre present
ab l
ab s
ĠI C
ĠC omp
Ġof ten
igh t
Ġwh ile
Ġtempl ate
ind ow
ĠEn gineering
1 7
r i
u tion
Ġ V
en ch
es e
Ġc or
Ġm ain
Ġin to
ow n
if t
Ġus e
Ġinc id
o u
t ext
Ġ qu
es t
Ġs el
Ġl abel
Ġre s
Ġw hen
ain ed
ĠLi u
i x
o ver
Ġm ulti
Ġd if
Ġin ter
ac y
Ġe mb
ĠS upervised
0 0
2 3
a w
r am
ti v
al ity
Ġs et
at ure
st ream
od er
ut om
ul t
Ġsu ch
ug h
ĠTh is
pec ific
1 4
G L
o und
Ġ he
en s
Ġt yp
Ġh igh
ve y
Ġth is
ĠB GL
d u
d oi
t un
at ing
Ġd r
am et
iz e
ff ic
Ġpromp t
Ġstr ucture
2 4
Ġd is
Ġw e
ĠA c
ĠT he
ĠIn Proceedings
Ġwh ich
Ġmet rics
ug ment
Ġcom m
Ġsem antic
Ġpaper s
3 5
b er
l ud
n ess
p ro
u ang
Ġm ay
ac e
om e
ev er
Ġev ent
Ġdi agn
t e
Ġ -
Ġst at
enc y
Ġemb edd
0 8
c ur
e ad
i e
i ew
m ain
is ion
Ġw here
ĠY ang
ĠH e
ĠU n
mar k
ia o
ser v
roach es
ench mark
own stream
D F
I n
c r
c ess
f er
f low
n ow
Ġ id
Ġo ver
ur al
Ġon ly
Ġcon str
ol og
Ġsummar ization
pen d
Ġdr ift
3 9
a i
a tic
Ġ ke
at h
Ġp er
ic it
202 5
ĠW ang
Ġcomp on
Ġpromp ting
Ġoper ational
Ġsystem s
Ġstud ies
ĠIC L
1 2
T A
s pecific
t he
y le
al e
et s
ĠR o
pl oy
ĠX u
Ġsur vey
DF S
1 10
A CM
i ed
Ġt ext
is t
et w
mp t
tr aining
Ġal so
lev el
Ġoutput s
Ġlear ning
Ġincid ent
utom ated
p r
Ġ time
er r
Ġc ause
Ġm ost
as e
ĠR CA
sis t
iz ed
ĠB ERT
ap t
ĠW e
Ġde ploy
equ ence
ĠComp ut
B ERT
Ġ 7
at or
et hod
Ġw indow
am e
ĠH DFS
Ġcl ass
Ġpredic tion
Ġdes ign
g r
i ation
o ur
w h
re e
en tif
Ġf e
st ead
Ġre ason
ac t
id e
Ġpro v
ĠJ i
Ġcont ro
i al
p le
Ġa g
Ġm ore
Ġd ata
Ġo b
ĠT r
Ġ202 3
hen g
up ing
Ġen c
ĠO n
con text
Ġexpl icit
Ġapp roaches
Ġman y
2 6
S S
m all
o ut
u e
Ġ 9
in c
al s
Ġc ost
Ġl evel
Ġd ownstream
ec ause
Ġre li
tic al
Ġsu pp
im it
Ġimp ro
Ġpattern s
Ġmess age
ugment ed
Ġcomm on
cur acy
Ġdeploy ment
0 3
1 3
f ig
o th
y n
on d
is h
ro ad
ĠL e
Ġev ents
Ġex trac
Ġr un
Ġtr ans
sh ot
Ġpipel ines
abl es
du ce
ffic ient
Ġke y
110 9
ĠOn line
f in
i re
i or
u es
an alysis
en d
Ġs p
at ch
Ġl ong
Ġl oc
ec h
Ġre qu
le m
Ġb ound
Ġh ow
Ġor g
Ġv ia
ting s
orm al
M A
o per
s upervised
u i
Ġ 21
Ġs ign
ed ge
ec ur
ac he
ĠP A
ss oc
ate g
uc tion
Ġr aw
Ġ1 8
ir d
tri b
Ġad d
ition al
Ġpar amet
Ġwork flow
Ġevalu ation
Ġmulti ple
Ġstructure d
b ust
f or
f ore
g er
i um
o sis
s c
ti ce
en e
or y
Ġc ross
as es
st yle
ĠS em
Ġb road
Ġto ol
Ġcon c
Ġth ese
Ġwh at
Ġde pend
Ġgro und
Ġmethod s
Ġar Xiv
rect ly
Ġset tings
now l
ecur ity
ssoc iation
G PT
i k
u b
Ġ 2
re at
re ss
re qu
en tic
or ing
Ġs earch
Ġs ome
ar ly
Ġf a
Ġin stead
Ġre main
ĠA CM
ul es
Ġn e
Ġinc lud
Ġuse ful
olog y
4 2
] ,
c es
g ener
o k
Ġc o
ro ugh
Ġf ine
ic ally
as t
ac es
Ġto k
Ġfor m
ad ig
iv en
form ation
tun ing
Ġconstr ain
pr int
nowl edge
7 9
L E
h av
i el
p ar
r id
s e
u o
u an
v ing
v iew
w ard
re d
Ġs ame
Ġs mall
at ural
Ġf ram
ĠA ssociation
ars ing
pre t
Ġcomp ar
log s
âĢĿ ,
ific ation
Ġro ot
Ġvari ables
Ġqu ality
Ġfe ature
Ġreason ing
ech n
) :
4 3
5 3
R A
a ugmented
i ti
s up
w ith
Ġ 8
Ġ k
on e
ti ll
ing le
Ġs oftware
Ġan aly
at as
Ġp l
is e
Ġb ecause
202 3
ĠG A
Ġpre print
ment s
oc us
ir st
Ġtr ad
ĠX iao
Ġro bust
Ġprac tice
Ġid entif
Ġsign als
4 7
G E
L a
a h
a mp
b lem
e y
i qu
p pl
u is
Ġ up
er y
ar Xiv
Ġc aus
ic e
Ġre f
ac ts
ĠR e
Ġn o
Ġev ol
Ġus ed
str uction
ĠZh ou
Ġtr aces
ion s
Ġbe hav
Ġgro uping
Ġcor p
Ġdiagn osis
Ġstat ement
etw ork
ĠSem i
La MA
0 1
4 9
7 5
c ent
c omp
f ailure
i er
i ally
o int
v en
v es
an k
Ġs o
Ġl imit
og ene
Ġm a
ic es
Ġb enchmark
ĠM a
ol l
ol low
ĠJ ia
Ġr are
im il
so ur
Ġdes cr
lev ant
Ġpipel ine
Ġembedd ings
ĠUn sup
Ġob serv
Ġsupp ort
fig ur
Ġrequ ire
Ġconstrain ts
6 2
7 7
a mpl
b ird
m odel
r it
r as
t empl
y b
Ġ j
Ġ err
ing uis
or ient
Ġs equence
Ġs till
Ġs ingle
ar g
ar ies
st and
Ġin ference
Ġre al
ac ing
Ġe mp
Ġe ff
le x
ĠS t
ĠA d
ĠA s
om ain
il l
tr ained
202 4
ter ogene
ĠM ethod
Ġth an
ĠH ong
Ġn ormal
im in
um mar
form ance
ĠTh under
Ġoper ator
Ġch all
Ġexpl an
Ġprac tical
Ġdif f
Ġtyp ically
Ġcompon ents
apt ation
Ġrun time
orient ed
2 8
G A
L A
S up
c k
d s
h u
j ect
l ated
o T
o ugh
Ġ &
Ġ es
er v
al ization
ar r
at ors
Ġa b
Ġa utomated
Ġl at
Ġre us
ĠS u
em ents
Ġth rough
Ġv ers
iz es
ap tive
ĠW ei
os e
Ġtr aining
Ġen gineering
Ġcom b
Ġstud y
duc ing
Ġar tif
Ġdec ision
Ġsel f
ix ed
Ġinter pret
Ġorg an
Ġground ing
sour ce
yb rid
terogene ous
ĠThunder bird
5 5
9 2
F O
I EEE
N FO
a el
a ware
d i
e an
f acing
h er
i ly
l oc
m in
w e
Ġ y
Ġc oll
is s
he ck
el i
ec tive
ec ution
Ġin t
Ġo p
Ġb ack
om al
Ġon line
ul l
ĠM an
if y
ĠH uang
Ġst able
ĠP ro
os ition
pec ially
ord s
Ġch ang
Ġretriev ed
Ġpar adig
IC SE
li ke
Ġrep ort
Ġ20 20
Ġmess ages
Ġdif feren
cess ing
sist ent
Ġcontro l
Ġbroad er
Ġbehav ior
cent ric
inguis tics
Ġartif acts
6 8
a f
a ti
a ve
d et
i ve
i tive
m er
m ed
o v
o op
t ail
u ment
ing ly
or ts
Ġc all
Ġc over
he ther
Ġm ak
Ġf am
ec ts
ec ting
Ġo pen
ac tions
Ġb ased
ce p
ĠA l
âĢ Ļ
ĠM ing
ol um
if ied
Ġv er
Ġsu b
iv ers
ĠW u
Ġus er
ir ical
um an
Ġac curacy
IC L
ĠAn alysis
duc es
ĠQ i
Ġrepresent ation
Ġdiagn os
Ġembedd ing
Ġcompon ent
Ġrobust ness
0 7
2 9
8 8
A c
C on
O U
c ed
h ttps
l ic
l anguage
r ing
t le
t ain
y mp
Ġ 5
an ts
an omaly
re s
al id
Ġf requ
Ġf ocus
Ġf ollow
ĠL u
ĠL LaMA
el l
Ġin te
Ġe ach
ĠS p
ĠS up
ĠI D
ig u
ev idence
Ġpro blem
Ġg r
Ġex p
ĠP re
Ġwith out
ĠJ in
of f
os ium
Ġdet ect
ĠTh ese
eng es
Ġrec ur
Ġ6 8
Ġhe terogeneous
Ġstat ements
Ġprov ide
ĠJi ang
ĠTr ans
Ġimpro ve
Ġtok en
Ġk nowledge
imil ar
Ġdiff ic
hu a
Ġes pecially
OU GE
ymp osium
Ġinte gr
0 4
0 5
4 0
6 4
E n
R E
W e
d e
o ud
p aper
r on
t ask
w o
w w
y i
en ti
er ature
Ġs y
Ġs imilar
Ġan omal
Ġc and
Ġa v
Ġa ppl
Ġl l
Ġl ight
ro p
it erature
Ġd evel
Ġf ew
et ri
mp ting
Ġin s
Ġre view
Ġw hether
Ġthe m
Ġb oth
un g
ag ement
ur bo
ĠY ing
Ġh and
ul d
Ġcon figur
ĠF or
ev al
Ġpro ject
Ġn atural
Ġst ream
Ġv s
Ġv alu
Ġ202 1
are d
ĠJ un
ĠJ ian
ĠE x
ĠD e
ĠD ong
ap h
ap p
ĠW en
ĠZh ao
Ġpars ers
ew ork
ort ant
ich ael
present ation
Ġdi rectly
Ġrec ent
ep ar
Ġrepresent ations
Ġlabel s
ens itive
Ġwindow s
Ġprov id
Ġparamet ers
sc ale
Ġne ed
Ġform at
Ġfeature s
iqu e
Ġma ke
ampl es
we ight
2 2
3 1
9 6
A R
A n
C omp
P I
R CA
S t
T he
] ).
a tiv
c y
c om
d r
e en
f ace
g ro
l et
m an
s ystem
Ġ âĢĵ
in al
er o
er t
Ġs ever
Ġs yn
Ġp o
Ġl iterature
Ġd atas
ĠL inguistics
Ġin v
Ġre duce
Ġw ord
ac tive
ĠS ymposium
ĠI NFO
ĠM ichael
Ġth en
ev ent
ure s
Ġv en
sis ten
Ġex ecution
ĠP r
ĠZ heng
ĠE v
Ġmodel ing
iv acy
Ġpre training
Ġas sist
ir it
Ġbe fore
Ġinc re
ect ed
ten ance
rec tion
Ġcontext ual
Ġsc ale
enc es
ii i
Ġres earch
tun ed
ĠRo ot
ĠComput ing
ĠComput ational
Ġcontro ll
Ġexplicit ly
trib ut
Ġremain s
LE U
Ġfram ework
Ġtrad e
Ġcorp us
stand ing
Ġdifferen t
ĠSp irit
Ġdiffic ult
Ġcand id
Ġdevel oper
etri eval
4 8
A g
I SS
P A
P C
S T
T able
a x
c i
c ord
d ec
f ree
h as
o uld
q i
u le
w en
w indow
Ã ¡
Ġ 11
in j
in ter
re g
re triev
Ġt reat
Ġs ecurity
ar ning
Ġc ur
Ġp ort
is k
is ting
Ġm od
Ġm ust
ent r
et t
et ter
et rics
Ġin ser
Ġre ly
Ġre levant
Ġo ur
ĠS un
ĠS ystem
20 20
ĠA I
ĠA r
ĠC l
ur ther
ĠY i
ĠY ic
ad oop
ĠR OUGE
Ġ202 2
ap id
Ġus es
str uct
ren t
Ġpars er
Ġstr ong
Ġad aptation
ĠSh i
ib r
Ġdec omp
Ġlear n
Ġrepresent ative
Ġsel ection
Ġlabel ed
ath er
etw een
mpt om
wh at
Ġenc oder
inc lud
Ġextrac tion
fin ition
Ġ21 9
Ġworkflow s
Ġfa ult
Ġcaus es
Ġdescr ip
Ġemp has
Ġlat ency
Ġreus e
olum e
4 6
7 0
7 6
T h
c l
e mp
e ars
e ff
g es
i ers
l p
l ag
n e
o od
u str
y ang
Ġt echn
Ġc ateg
Ġl ine
he ad
Ġm o
it s
Ġd em
Ġd omain
Ġf iel
Ġf irst
Ġf urther
ic ro
ic ation
ĠL in
ĠL yu
as h
ac l
ag ent
Ġh ybrid
Ġh ave
ĠM odel
ĠM eng
ĠF TA
ĠF GA
Ġv alid
Ġex amples
Ġis s
ĠG u
ĠD an
Ġr apid
Ġal ign
ĠZh i
ff line
ĠâĢ Ļ
ib in
ib le
mb igu
Ġun ique
Ġsem i
Ġsh ould
Ġimp ortant
Ġfailure s
Ġcor rect
Ġincid ents
du str
ist or
BERT a
trib ution
Ġparamet er
par amet
amp le
Ġdecision s
ument ation
Ġfrequ ent
Ġrecur ring
ĠTrans actions
Ġsy mptom
sisten cy
/ .
3 0
8 6
9 4
L P
P ars
R e
R o
Y es
] ),
c ause
e k
i ency
j ie
m a
m etrics
n n
o un
r is
u tions
v ari
w ord
on om
on str
re lated
Ġt arg
or a
Ġs equ
Ġs epar
Ġs ensitive
Ġc ap
Ġa ss
Ġa ugment
Ġa mbigu
Ġl ess
Ġl ay
is on
ro w
Ġm at
Ġd o
Ġf il
Ġf ixed
ec tiv
Ġin put
Ġin formation
Ġin struction
ac tion
Ġe fficient
Ġe arly
le ment
Ġb etter
un ing
ĠA utomated
ĠA PI
Ġto ward
ĠC oT
em b
ĠT ao
Ġon e
Ġh uman
Ġh istor
ith ful
ĠH ow
ĠH ao
Ġn um
Ġn etwork
Ġn arr
Ġv iew
Ġpre c
Ġr ules
Ġr isk
tern al
ail s
ĠLog s
log ging
Ġen d
ach ine
ĠO ffline
Ġpromp ts
Ġsummar y
Ġstr ateg
av a
Ġsc ore
18 6
Ġ4 2
ĠYu an
Ġtyp e
Ġhigh l
ffic iency
ĠAc ross
Ġclass ification
Ġdesign s
fin ement
Ġanaly tics
Ġup d
Ġlimit ed
Ġerr or
Ġchall enges
Ġexplan ation
eli ability
Ġint ro
Ġlight weight
Ġconfigur ation
dr iven
3 4
6 0
7 4
8 0
8 4
E v
U RL
a ir
b y
c al
i ous
l arge
l abel
m ethod
p arsing
s el
s equence
w here
y ing
z h
â Ĩ
Ġ <
Ġ =
Ġ ti
Ġ tim
ti tion
en ing
er ver
Ġt wo
or ting
Ġs ess
Ġs our
at GPT
Ġc le
Ġp h
is y
Ġm e
Ġm ask
Ġm atch
it e
ic k
ĠL anguage
as ingly
ec han
ec ond
ĠS ch
ĠS ection
od ers
20 15
ĠA U
ut ure
id ent
ĠC ode
ĠT ask
âĢ Ķ
ĠF ine
ol ic
ol ution
ol utions
tic k
ĠR eliability
ĠH u
ĠH uo
Ġpro p
Ġst and
Ġg u
Ġsu g
Ġsu pervis
th ough
ex pl
ĠP inj
iz ing
ĠE D
ĠD i
ap ache
Ġal one
str ucture
ĠN ew
ĠZh ong
ail able
os it
igh ts
ĠX in
Ġgener ate
ach ing
Ġpr og
Ġpr ivacy
Ġde finition
dic tion
Ġsystem atic
Ġch o
Ġch ain
ib ility
Ġun supervised
Ġ3 4
Ġvari able
Ġman ual
Ġmain tenance
ber t
Ġ9 8
Ġreli able
ĠLe e
Ġextrac ted
Ġtrans form
Ġbound aries
ub lic
Ġinclud e
RA G
iti es
Ġref l
comp on
Ġrare ly
templ ates
ĠHong yu
Ġvers us
loc k
Ġop tim
Ġback b
Ġcover age
Ġgr aph
Ġdeveloper s
Ġmo tiv
Ġsequ ences
emb edd
echan is
ĠPinj ia
* >
0 2
5 2
5 4
6 1
9 9
A C
A I
A d
F ig
N o
O ps
c or
c heck
d er
e ps
g ed
h ang
h ow
h igh
h ao
h adoop
m o
o h
r un
u ally
v an
x i
y ond
z e
Ġ if
in a
in u
in ts
in ally
in ery
an tics
on s
on es
on ly
re ad
re sh
en ge
Ġt uning
Ġc ore
Ġa bo
Ġl ines
Ġl ik
Ġm ul
Ġm echanis
Ġd oc
Ġf ull
Ġf lag
ĠL ear
et her
mp irical
st ep
Ġin dustr
Ġw id
Ġo ther
Ġthe re
ĠS ummar
od al
ab or
ab il
ĠA t
om m
ĠT ian
ĠY int
10 7
ul ts
Ġcon d
Ġcon ven
ĠM ar
ev en
Ġpro cess
Ġst atic
Ġsu pervised
Ġex empl
ĠP ar
ĠB enchmark
ĠG en
ess age
Log ger
Ġr ank
Ġcomp ut
Ġcomp let
Ġtr ained
tim odal
Ġmet ric
ĠX ie
Ġ10 3
Ġbe yond
Ġac tion
ach inery
oft en
ĠK ar
Ġpr ior
con str
alu ation
Ġsummar ize
Ġad aptive
Ġoper ators
36 39
Ġit er
ind ings
Ġwork s
Ġsc oring
Ġcl oud
Ġun ified
Ġunder standing
ĠAn omaly
Ġpredic t
Ġrec ords
ĠCh ang
bo ok
Ġevalu ated
ĠAc curacy
35 9
cr imin
olog ical
39 0
ath s
Ġper form
Ġper formance
wh ich
Ġbound ary
Ġdepend s
Ġfa ithful
Ġcompar ison
Ġidentif iers
Ġno isy
templ ate
di rectly
Ġchang es
Ġparadig ms
Ġfam ily
cep tion
Ġsimilar ity
Ġanomal ies
Ġav ailable
Ġdatas ets
Ġven ues
tribut ed
Ġcandid ate
ISS RE
retriev al
ĠYic hen
Ġdecomp osition
Ġdem onstr
paramet er
onom y
Ġhistor ical
âĨ Ĵ
ĠAU C
structure d
Ġmul timodal
ĠYint ong
0 6
2 20
4 4
5 7
7 1
7 3
N I
O R
P E
T o
T r
b in
b ack
b ase
c ost
d ata
e f
f l
g th
g reg
h ance
i mpl
j un
k i
l d
l in
l es
l ish
n o
n ormal
r a
r ag
s et
s ive
t urbo
u ch
v ir
w or
w ei
y th
re p
re presentation
re finement
re ening
ti l
ti es
er n
er ts
Ġt er
or iz
Ġs e
Ġs erv
Ġc ache
Ġc ases
Ġc heck
Ġp ure
Ġl arg
Ġm is
Ġm achine
it al
ĠL A
ec tr
Ġin fer
Ġe fficiency
ĠS heng
Ġb etween
us p
us s
ab ly
ab ul
ĠI t
om in
il d
ig ital
ĠT echn
Ġh as
Ġh ard
Ġcon s
am es
ter s
ad ing
ĠR A
ĠR a
ĠR etrieval
ĠIn formation
Ġv ect
Ġev en
Ġex ample
ĠP et
ĠP eng
ĠP arsing
ĠB o
ĠB en
Ġwith in
ars e
ĠJ ing
und ed
ĠD et
Log B
Ġr ather
11 1
ren gth
ĠN e
ĠN etwork
ĠZh u
ud g
Ġ1 3
oc abul
empl ate
Ġpars ed
Ġcomp are
Ġcomp lex
im s
ver all
ĠX ia
Ġ10 0
Ġinc on
ĠO pen
ĠK a
Ġsummar ies
Ġad op
ĠSh u
trac es
trac tive
ll m
ĠCh atGPT
duc tion
Ġprac tic
Ġsh if
Ġsh ift
Ġat tractive
Ġrep osit
Ġsur face
abl ed
Ġlabel ing
Ġres ult
00 0
utom atic
Ġtyp es
ĠThe y
ĠRo BERTa
Ġag entic
Ġlevel s
Ġreli ability
Ġtrans fer
Ġsp ace
Ġloc al
Ġtok ens
Ġtrad itional
Ġevol ving
rit tle
Ġchall enge
Ġcomb ine
Ġparadig m
ati s
det ection
Ġmak ing
Ġmak es
ivers ity
Ġdiagnos tic
enti al
Ġstream s
Ġvalu es
Ġsever al
Ġincre asingly
ax onomy
cord ia
Ġstrong er
Ġiss ues
Ġnum ber
186 53
Ġ< *>
tick ets
Ġsupervis ion
Ġabo ut
ĠLear ning
Ġwid ely
vir on
yth on
oriz on
Ġlarg ely
5 8
5 9
A D
B N
E x
F or
P aper
S BN
T RA
U n
] )
c ing
c ode
d l
d is
d ex
g ation
i o
i age
l o
n al
o id
p t
r an
s em
s ummar
t yp
w hen
x in
z ero
Ġ )
Ġ ill
Ġ zero
in k
in ing
an ion
re l
re t
re te
re levant
en ess
er a
Ġs pecific
ar n
ar ch
ed ium
Ġc ues
Ġc aching
Ġa ut
he rent
Ġm ean
Ġd ed
Ġf ree
Ġf uture
ic s
ic ated
ic ations
ĠL l
ec all
Ġin form
Ġre g
Ġre lated
Ġre ducing
ac m
Ġthe ir
le arning
ĠS ong
ĠS ecurity
ĠS erv
Ġb ec
Ġb ert
Ġb rittle
ĠI SBN
ang e
ly ing
ĠA g
id ed
id entif
il un
il ies
ĠC an
ur n
ĠT o
ĠT om
ĠT ong
ĠY if
ĠY ong
ĠY ilun
per t
Ġh yp
ul ar
Ġcon ver
Ġcon sistency
am i
ĠM achinery
ĠF a
ĠF ailure
ĠF ei
ad e
ĠR en
Ġpro duce
Ġn on
Ġn ew
Ġst ar
Ġst ack
Ġst yle
Ġst rength
Ġg o
Ġv ocabul
ĠZ hen
ĠB LEU
ĠG ener
ĠJ eff
ĠJ ava
uc in
ĠD ata
Ġpre trained
Ġal ong
to k
to p
to ol
all ucin
tt p
Ġtr iage
ore d
Ġen ti
form er
ĠK ang
ten tion
con f
dic ating
Ġsummar izes
Ġoper ations
pec ial
ĠSh imin
Pro mpt
ser ve
Ġsc al
Ġapp ear
Ġ3 3
Ġsem antics
Ġpredic ted
Ġ4 6
ĠCh ris
duc ed
Ġsh ow
Ġevalu ates
ason ing
Ġqu ery
Ġres p
Ġdif fer
ound ation
Ġdis c
Ġwe ak
ĠAc c
Ġcomm un
Ġwhere as
Ġsurvey s
err or
Ġclass ic
our nal
Ġag greg
Ġenc oders
Ġ9 79
oth es
Ġrun book
Ġloc ation
Ġloc alization
Ġadd itional
Ġtool s
Ġinclud ing
Ġco un
Ġfram es
Ġcorp ora
Ġbenchmark s
Ġdescr ib
Ġobserv ability
Ġerr ors
Ġexplan ations
Ġcomb ines
Ġcoll abor
ĠMan agement
mer ging
Ġcall s
Ġfam ilies
Ġver ification
res earch
ĠID s
off s
Ġintegr ation
We b
ww w
Ġll m
Ġll ms
Ġprovid es
ativ es
Ġassist ance
Ġcontroll ability
Ġdescrip tion
cl ass
Ġcateg ory
Ġfiel ds
Ġvalid ation
Pars er
vari able
Ġaugment ation
Ġambigu ous
Ġlay ers
ĠHow ever
Ġnarr atives
Ġstrateg ies
Ev al
zh i
Ġsess ion
Ġcho ices
compon ent
Ġlik ely
Ġmechanis ms
Ġindustr ial
Ġdemonstr ations
wor ld
Ġill ustr
% )
0 9
1 20
2 7
5 1
7 2
8 3
A SE
C E
C S
C l
C TRA
E T
F T
H s
M s
S A
S c
S erver
T urbo
a u
a ud
b all
c ol
c oder
c oun
e h
e fficient
f ix
f irst
g ram
h ui
k h
l er
l ing
l ap
m it
m ulti
m atch
m iss
n i
o ther
p attern
p ose
q ing
r d
u pl
u ild
w rit
Ġ "
Ġ ,
Ġ čĊ
Ġ ed
an ti
an th
or ies
Ġs er
Ġs econd
ar row
at ement
Ġp age
Ġp oint
Ġp aths
Ġl ow
Ġl ever
Ġl ist
og ether
ro ot
Ġm on
Ġm em
Ġm iss
it ect
Ġd omin
Ġf inal
Ġf rag
ent ence
ĠL ew
ĠL iao
et ric
el f
Ġin j
Ġin directly
Ġin dex
Ġre l
Ġre duces
Ġw as
Ġo ut
Ġe as
Ġb od
od ing
ag ing
ĠI SS
ĠA b
ĠA m
ur ing
ur vey
ur pose
ig ure
ĠT ang
ĠT able
ĠT im
ĠT se
âĢ ľ
10 0
10 6
10 16
10 07
Ġcon n
Ġcon sistent
am a
am b
ter ing
ĠM i
ĠF u
ĠF ull
ĠF igure
ad itional
Ġpro cessing
Ġst age
Ġst abil
Ġv olume
ex ts
Ġex act
ĠP ei
ĠG r
ĠE mpirical
ĠD uan
Log s
Log ging
Ġal l
Ġal erts
11 8
ĠZh uang
Ġ1 92
igh b
tim es
Ġen han
Ġgener al
ĠK u
con t
rec tions
ĠSh ao
Ġch ron
Ġexpl o
Ġdi rection
Pro mpting
Ġcl a
Ġcl ust
Ġapp roach
Ġapp ears
ĠAn d
op e
Ġ4 7
ĠYu xin
agn os
Ġvari ants
16 8
Ġ6 4
Ġrep orting
Ġ20 19
abl ing
Ġcor rel
Ġmain ly
Ġhigh er
Ġdis tribution
Ġsemantic ally
pro mpting
serv ice
cr af
now ball
ĠWe ibin
Ġcommon ly
Ġkey word
Ġsp ans
Ġadd ition
Ġadd ress
Ġconc rete
Ġne ural
LE CTRA
Ġsmall er
Ġpl ac
ey ond
iqu es
Ġevol ution
75 03
ier arch
Ġrequire ments
model s
ras ing
Ġemp irical
Ġab ility
ĠSu ch
Ġvers ions
Ġinterpret ation
ĠThunderbird Yes
Ġy et
Ġcoll ection
Ġop tion
Ac ross
Ġfocus es
ĠLu ke
Ġdetect ors
task s
Ġappl ied
ĠEx pl
An omaly
St age
Ġsyn t
Ġword ing
Ag ent
Ag entic
ett y
ĠSystem s
ĠAI Ops
ibr ary
includ ing
emp or
Ġtechn iques
acl anth
ĠZhi han
Ro ot
Ġcap ability
Ġprec ision
Ġsour ce
Ġsug ges
Ġprog ram
Ġbackb ones
Ġdoc umentation
Ġconven tions
Ġexempl ars
constr ained
359 7503
crimin ative
hance ment
ern s
Ġter ms
Ġpure ly
ĠRA G
ĠDet ection
Ġshif ts
Ġmean ing
Ġhyp othes
Ġcollabor ation
Hs un
ĠLew is
craf ted
nowball ing
ierarch ical
aclanth ology
1 21
3 3
3 390
6 7
8 1
8 2
B enchmark
B LEU
C h
D E
G D
H o
I G
I P
J ournal
L D
L LaMA
N LP
R R
R ules
R etrieval
S O
S oftware
W S
a j
b ut
b ug
c an
c all
c ross
e ve
e gr
e red
f indings
g ent
h a
h ong
h and
h ost
i ate
l s
l ectr
l ibrary
m ing
m od
m essage
n a
n er
n ot
n lp
p ass
p urpose
q ian
r ank
s p
s es
s ion
u rop
u til
v olume
w ay
w ise
Ġ :
Ġ ;
Ġ 36
Ġ 24
Ġ tickets
in to
in struction
on al
re al
re hen
re present
re fl
Ġt re
Ġt ail
Ġt axonomy
al one
Ġs ch
Ġs ection
Ġs usp
Ġs pecial
ar ger
ed ul
at ab
Ġc it
Ġc entr
Ġp ot
Ġp ublic
Ġa m
Ġa ware
Ġa utomatic
Ġl o
is ing
Ġm iti
Ġd igital
Ġf it
Ġf ail
ent ly
ent ory
ic t
ic se
ic ious
ĠL evel
as c
as ures
Ġin f
Ġin str
Ġre ad
Ġre con
ac le
Ġe ith
ĠS e
ĠS i
ĠS ci
ĠS IG
Ġlog ged
us e
us ion
ĠA pp
Ġto o
Ġto ler
il in
ĠC ause
ĠC ui
em nlp
ĠY an
ĠY un
ĠY ork
ĠY ao
ain st
10 8
ĠM at
ĠM oh
ĠF eng
Ġth us
ch itect
ad a
ad aptation
ol d
ĠR u
ĠIn t
ĠIn stead
ĠH an
Ġpro active
Ġpro duction
Ġn arrow
Ġst atis
Ġg ap
Ġg iven
Ġsu fficient
Ġsu ite
th an
th rough
ex trac
Ġex ternal
Ġex ception
Ġ202 6
ĠP rec
ĠP ython
ĠZ ero
ĠZ ibin
are ful
ĠG uo
ĠJ ared
qu ality
iv ed
ĠD u
ot e
ĠU SA
Ġpre serve
11 5
11 9
ĠN Y
pre ss
Ġ1 45
ĠLog ging
Ġcomp act
im ing
fe i
Ġcont ent
Ġcont inu
Ġcont exts
tri eve
Ġen viron
ĠX i
Ġgener ating
Ġgener alization
ric h
ĠO verall
ĠK e
Ġde f
ĠCon cordia
Ġad j
Ġad apt
36 4
Ġit s
Ġexpl ain
Ġdi rect
int egr
Ġsc reening
IC WS
imp ro
Ġunder lying
Ġ3 1
Ġ3 5
ard s
utput s
LLM s
37 28
Ġrec ord
25 08
SE M
sh ip
ĠQ wen
ĠNo v
Ġdec id
Ġ6 2
ĠChen g
oy er
Ġman agement
ĠV an
Ġqu ick
est amp
oder n
14 3
Ġhe ad
Ġhe lp
ens e
Ġdis t
Ġdis tributed
Ġwe re
pro blem
In ternational
Ġover head
Ġconstr ained
Ġconstr uction
Ġke ep
Ġwindow ing
Ġag ents
Ġag ainst
Ġsupp orts
Ġimpro ves
Ġsp an
lem oyer
Ġ18 8
Ġconc erns
requ ire
Ġsome times
gener ated
Ġcompar ability
Ġpl ace
ey ang
ĠRe present
ĠRe presentation
ven ue
ves ti
Ġobserv ed
Ġj oint
Ġlat er
Ġorgan ized
ĠPro mpt
med iation
Ġdiagnos tics
ell ig
ĠJin yang
Ġdetect or
En gineering
En coder
Ġanomal ous
Ġav oid
Ġins p
Ġvalu e
AR N
Ġsever ity
Ġpo ints
dec oder
Ġcur rent
ett lemoyer
Ġinser tion
Ġrely ing
Ġtarg et
Ġtarg ets
Ġmat ters
84 00
Ġprop ag
Ġstand ard
van ces
Ġthere fore
ĠSummar y
Ġcond ition
Ġaction able
Ġvect ors
Ġincon sistent
Ġreposit ory
Ġinform ative
ĠAg entic
ĠYif an
ĠGener ation
top her
Ġenti ties
ĠChris topher
Ġ979 8400
Ġrunbook s
Ġcoun ts
aud e
Ġbod y
ĠZhuang bin
Ġexplo it
Ġcla ims
Ġclust ering
Benchmark s
Ho ang
bug ging
Ġsch edul
Ġcentr al
Ġeith er
ĠApp roaches
Ġschedul ing
0 25
1 36
1 23
3 00
4 1
5 0
6 6
6 30
9 0
9 1
9 5
9 7
= *
= {
A s
C ode
D A
D ec
F SE
F inally
G en
G ener
G iven
H ybrid
I D
I J
I S
I d
J etty
L evel
O D
P P
P r
P arsing
S M
X X
b e
c a
c as
c aus
c ial
d if
e ek
f it
f ter
f ri
f ocus
g u
i mar
i ors
j or
l ps
l ama
m aining
n et
o b
o ren
p i
p ars
p ages
p eng
r y
s k
s on
s ing
s of
s equ
s mall
s ecurity
t on
u mp
u oc
v ed
v ers
v alu
w ords
z he
Â ·
Ġ ent
Ġ 45
Ġ 26
Ġ era
in f
in i
in ary
in dicating
an ation
on ics
re Log
ti an
ti ally
en abled
er ies
er ge
er formance
Ġt est
Ġt ogether
Ġt empor
es ting
Ġs pl
Ġs olutions
ar m
ed s
at er
at ency
Ġc apt
Ġc areful
Ġp ers
Ġp osition
Ġp olic
Ġa im
Ġl ead
Ġl ink
Ġl arger
og n
is tic
is ts
ro uping
he l
he ma
Ġm ap
Ġm icro
Ġm uch
it oring
Ġd er
Ġd el
Ġd atab
Ġf ac
Ġf oundation
ĠL ing
ĠL Ms
et h
et ch
el ow
el ines
mp ro
as sis
ec k
st age
st atement
Ġin st
Ġin iti
Ġin ternal
Ġin vesti
Ġre writ
Ġre mediation
Ġre maining
ac tic
ac ross
ac tical
Ġe mit
le ments
ĠS w
ĠS ub
ĠS imil
ĠS cal
ĠS entence
ĠS elf
Ġb est
Ġb ene
Ġb lock
Ġb udg
Ġb uild
20 7
un c
ag ed
ag entic
ĠA lex
ut ting
Ġto p
il i
ĠC or
ĠC ar
ĠC ai
ĠC omm
tr y
tr ucture
tr ast
em ber
ĠT emplate
202 1
202 2
10 3
Ġh orizon
Ġh allucin
Ġfor ms
ul ation
am an
ĠM e
ĠM ain
ĠM ost
ĠM ay
ĠM etric
ĠF l
ĠF inally
Ġth ree
Ġth reat
ev aluation
ine ering
Ġor d
ad ata
if eng
ĠR I
ĠR ecall
ĠIn c
ĠIn s
ĠIn Comp
ĠH a
ĠH igh
ĠH eng
Ġpro to
Ġpro ducing
Ġn orm
Ġn ames
Ġst ability
Ġst eps
Ġv is
th at
Ġex ten
Ġex press
ĠZ i
ĠZ ettlemoyer
iz ations
ĠB y
ĠB ig
ĠB oth
ĠE d
ĠE ff
pl an
und ing
ĠD en
ĠU ser
Ġpre v
Ġpre fix
ĠW h
ĠW ARN
Ġr ig
Ġr ich
Ġr ule
ĠN ar
ĠN atural
os ing
os es
pre diction
Ġ1 62
ĠLog B
all el
all enges
Ġdet er
Ġcomp ress
ore s
log ger
um ing
Ġmet adata
Ġen abling
Ġbe ing
Ġgener ic
Ġgener ators
form at
ĠO r
ĠK im
ĠK uang
ĠK nowledge
Ġpr imar
con figur
Ġde ep
Ġde bugging
eng ineering
Ġsummar ized
Ġoper ate
ĠSh an
21 3
Ġdi rections
Ġpar t
Ġsc ope
Ġcl os
imp le
15 0
15 5
15 6
15 9
Ġgro w
here fore
19 5
19 8
19 9
ipel ines
ĠQ ing
Ġar chitect
ak es
Ġsh ort
agn osis
Ġvari ation
Ġvari ability
16 6
Ġdec oder
Ġdec ide
Ġdec oding
Ġrep orts
ual ity
ri el
Ġmain tain
Ġres olutions
Ġres ults
ix ing
00 3
14 6
Ġhe av
Ġhe lps
pro mpt
ever al
08 0
08 8
serv ices
In struct
Ġper sistent
ĠRo ber
ĠXu e
ĠXu an
ĠWe b
ĠComput er
Ġ7 0
Ġ7 9
wh ile
Ġob j
Ġenc ode
Ġcost s
Ġreli ance
Ġreli ably
Ġimpro ving
Ġtrans l
end ly
Ġsp arse
Ġrequ est
oper ator
Ġ21 4
Ġconc entr
ub lish
Ġinclud ed
gener al
gener ation
iel ds
Ġ8 3
Ġanaly ses
atas et
Ġpl aus
Ġidentif y
Ġidentif ied
Ġref resh
Ġevol ve
Ġlimit ations
Ġma jor
ollow ing
Ġrequire s
ras h
Ġeff ective
Ġeff ectiv
ĠSt age
ĠAd aptive
ĠMethod ology
Ġnormal ized
Ġab str
Ġreus able
Ġinterpret able
Ġinterpret ability
ĠThunderbird No
Ġint ent
Ġback ward
ĠPro ceedings
Ġchang e
med iate
ĠMing hua
Ġuser Id
Con ference
Con text
Ġfollow ing
ĠPre diction
de pend
rop y
Ġhand crafted
ĠDe f
Ġneed s
ativ ely
gro uping
Ġdatas et
Ġinv entory
Ġven ue
Ġassist ants
Ġcandid ates
cord ingly
dec ision
window s
Ġ11 6
Ġtreat s
Ġcur ated
Ġmod es
Ġdescrip tions
Ġemphas ize
Ġemphas izes
Ġtechn ical
Ġfiel d
Ġcorrect ness
Ġfrequent ly
Ġsymptom s
Ġsepar ate
Ġfil tering
Ġinput s
lement ed
Ġrisk s
Ġscore s
Ġhighl ight
Ġupd ates
Ġintro duces
ious ly
Ġti tle
Ġtim estamp
tition ers
Ġcle ar
Ġph rasing
Ġmask ed
Ġstand alone
Ġgu ard
though t
Ġchain s
Ġrefl ecting
Ġgraph s
Ġmotiv ating
embedd ing
check ing
mo ve
run time
Ġflag ship
ĠMar k
Ġfaithful ness
To ol
Tr ans
Ġserv ices
ĠSheng lin
Ġpractic es
lo ad
typ e
Ġded upl
Ġbec ome
ĠCan ada
ĠYong qian
ĠFa ult
Ġstar ted
Ġgo al
Ġdisc uss
Ġcommun ity
Ġillustr ates
Sc ore
gram s
ni pp
pattern s
Ġed it
Ġser ve
Ġmon itoring
Ġmem ory
ĠISS N
Ġstabil ize
ĠKu mar
Ġchron ological
Ġoption ally
ĠExpl oring
host ed
ls en
urop ean
ĠMoh am
Ġstatis tics
ĠNov ember
Ġquick ly
ellig ence
IJ C
fri endly
assis ted
ĠSimil arly
ĠInComp anion
Ġproto col
Ġcompress ion
- /
1 25
1 35
1 39
5 6
5 62
6 42
7 8
8 7
9 8
A ugmented
C I
C hen
D e
D i
D is
D PP
E M
E r
E OR
E LECTRA
H PC
H ttp
I NFO
L O
L lama
M an
M edium
N N
N CE
O utputs
P D
P s
S v
S em
S MA
S PE
T D
W L
a e
a ol
a ke
b u
b el
b ecause
b etween
c s
c le
c utting
d es
d el
d le
d oc
d omain
d pi
d ater
e a
f a
f ollowing
g an
g est
h ib
h orizon
h ttp
h old
i ol
i able
i tiv
j iel
k s
k in
k ai
l atency
m e
m ad
m ei
m icro
m dpi
n y
n ual
n atural
p ost
p ipelines
r aw
r ases
r ails
s u
s um
s ide
s ki
t ual
u x
u ps
v Ã¡
x iao
y s
y an
y ber
z i
z hen
z ami
{ }
Ã ©
â Ī
â Ł
Ġ {
Ġ im
Ġ est
Ġ impl
Ġ util
in ation
in str
an i
an u
on line
on se
re main
re asoning
en tion
er g
er i
er ification
al i
or th
Ġs it
Ġs ampl
Ġs impl
Ġs nowballing
Ġan other
ar t
at ely
at tention
Ġc al
Ġc od
Ġc ase
Ġc arr
Ġc rash
Ġp us
Ġp ost
Ġp air
Ġp ublish
Ġa ver
Ġa ff
Ġa fter
Ġl ab
og onal
is tr
is tics
ro ll
Ġm ix
Ġm ining
Ġm ade
Ġd ivers
Ġf ile
Ġf als
Ġf ast
Ġf lex
ic ial
ĠL oc
ĠL ei
et ing
el ine
st e
st able
Ġin dic
Ġin herent
Ġre d
Ġre st
Ġre pl
Ġre vis
Ġre ference
Ġre source
Ġre duced
Ġw ay
Ġo c
Ġo th
ac ent
le ad
ĠS ar
ĠS am
ĠS ome
ĠS erver
Ġb ur
20 4
20 6
20 9
us ing
us tif
ab i
ĠA p
ut h
ut ing
id el
id ong
id dle
ĠC o
ĠC ao
ur u
ur ning
ĠT B
ĠT ing
ĠT op
ĠT est
ĠT ie
ĠT esting
âĢ ¢
ĠY in
10 1
10 2
10 9
10 77
Ġh ost
Ġh ierarchical
Ġcon tribut
ter min
ĠM c
ĠM in
ĠM ari
ĠM ish
ĠM ik
ĠM edium
ĠF ew
ĠF rom
ĠF ile
ĠF SE
ĠF ast
ĠF ung
ev ents
ev iew
Ġor th
Ġor acle
ch ang
ch eng
ch ange
ad d
ol as
ol ds
if ies
if iable
ĠR es
ĠR ong
ĠR ui
ĠH adoop
Ġpro duces
Ġn ext
Ġn ame
Ġex isting
Ġex hib
ĠP at
ĠP TA
ĠP erformance
ĠP Er
ĠZ eyang
ĠB og
ĠB av
ĠB ase
Ġis ol
ĠG ao
ĠG uan
ĠJ os
ĠJ ason
ĠJ ie
ĠJ oint
ĠE r
ĠE ric
ĠE fficient
ĠE RR
ĠE lectr
ĠE uropean
ĠD B
ĠD is
ĠD em
Log S
Log Re
Log AD
Log Eval
and s
Ġus age
Ġr ange
ĠN aman
ud it
Ġ1 5
Ġ1 20
Ġ1 26
Ġ1 94
ĠLog Eval
igh ted
Ġcomp rehen
Ġcomp lements
Ġtr ace
feren ces
ĠLi ang
ĠLi peng
Ġen gine
Ġen ough
Ġen rich
Ġgener ative
ug g
Ġac c
Ġac tions
Ġinc or
ĠO l
ke y
con sum
rec all
ĠCon text
put s
Ġstr ict
ĠSh a
ĠSh ar
ĠSh ang
21 2
21 6
21 8
Ġch at
36 3
36 9
36 26
36 96
ind ustr
Ġpar tially
Ġpar allel
Ġwork load
mb olic
ĠEn d
Ġcl ar
IC PC
IC DE
enc ies
li am
Ġun constrained
Ġun stable
15 1
Ġ3 2
Ġ3 8
Ġ3 9
trac k
Ġpredic ting
ass ive
Ġgro up
19 4
37 6
37 7
37 49
37 55
37 46
ful l
Ġrec ogn
25 2
25 8
ĠCh ao
ĠYu e
yu an
ĠQ uoc
ĠQ uality
Ġcode base
bo unded
16 9
Ġat tribution
Ġevalu ations
oy al
Ġrep ro
Ġrep air
ason er
ĠComp ared
17 3
ĠV ari
ou pl
Ġqu eries
Ġsel ecting
