{"<|endoftext|>":0,"!":1,"\"":2,"#":3,"$":4,"%":5,"&":6,"'":7,"(":8,")":9,"*":10,"+":11,",":12,"-":13,".":14,"/":15,"0":16,"1":17,"2":18,"3":19,"4":20,"5":21,"6":22,"7":23,"8":24,"9":25,":":26,";":27,"<":28,"=":29,">":30,"?":31,"@":32,"A":33,"B":34,"C":35,"D":36,"E":37,"F":38,"G":39,"H":40,"I":41,"J":42,"K":43,"L":44,"M":45,"N":46,"O":47,"P":48,"Q":49,"R":50,"S":51,"T":52,"U":53,"V":54,"W":55,"X":56,"Y":57,"Z":58,"[":59,"\\":60,"]":61,"^":62,"_":63,"`":64,"a":65,"b":66,"c":67,"d":68,"e":69,"f":70,"g":71,"h":72,"i":73,"j":74,"k":75,"l":76,"m":77,"n":78,"o":79,"p":80,"q":81,"r":82,"s":83,"t":84,"u":85,"v":86,"w":87,"x":88,"y":89,"z":90,"{":91,"|":92,"}":93,"~":94,"¡":95,"¢":96,"£":97,"¤":98,"¥":99,"¦":100,"§":101,"¨":102,"©":103,"ª":104,"«":105,"¬":106,"®":107,"¯":108,"°":109,"±":110,"²":111,"³":112,"´":113,"µ":114,"¶":115,"·":116,"¸":117,"¹":118,"º":119,"»":120,"¼":121,"½":122,"¾":123,"¿":124,"À":125,"Á":126,"Â":127,"Ã":128,"Ä":129,"Å":130,"Æ":131,"Ç":132,"È":133,"É":134,"Ê":135,"Ë":136,"Ì":137,"Í":138,"Î":139,"Ï":140,"Ð":141,"Ñ":142,"Ò":143,"Ó":144,"Ô":145,"Õ":146,"Ö":147,"×":148,"Ø":149,"Ù":150,"Ú":151,"Û":152,"Ü":153,"Ý":154,"Þ":155,"ß":156,"à":157,"á":158,"â":159,"ã":160,"ä":161,"å":162,"æ":163,"ç":164,"è":165,"é":166,"ê":167,"ë":168,"ì":169,"í":170,"î":171,"ï":172,"ð":173,"ñ":174,"ò":175,"ó":176,"ô":177,"õ":178,"ö":179,"÷":180,"ø":181,"ù":182,"ú":183,"û":184,"ü":185,"ý":186,"þ":187,"ÿ":188,"Ā":189,"ā":190,"Ă":191,"ă":192,"Ą":193,"ą":194,"Ć":195,"ć":196,"Ĉ":197,"ĉ":198,"Ċ":199,"ċ":200,"Č":201,"č":202,"Ď":203,"ď":204,"Đ":205,"đ":206,"Ē":207,"ē":208,"Ĕ":209,"ĕ":210,"Ė":211,"ė":212,"Ę":213,"ę":214,"Ě":215,"ě":216,"Ĝ":217,"ĝ":218,"Ğ":219,"ğ":220,"Ġ":221,"ġ":222,"Ģ":223,"ģ":224,"Ĥ":225,"ĥ":226,"Ħ":227,"ħ":228,"Ĩ":229,"ĩ":230,"Ī":231,"ī":232,"Ĭ":233,"ĭ":234,"Į":235,"į":236,"İ":237,"ı":238,"Ĳ":239,"ĳ":240,"Ĵ":241,"ĵ":242,"Ķ":243,"ķ":244,"ĸ":245,"Ĺ":246,"ĺ":247,"Ļ":248,"ļ":249,"Ľ":250,"ľ":251,"Ŀ":252,"ŀ":253,"Ł":254,"ł":255,"Ń":256,"in":257,"an":258,"on":259,"čĊ":260,"re":261,"ti":262,"en":263,"er":264,"ing":265,"Ġt":266,"al":267,"or":268,"es":269,"Ġs":270,"Ġan":271,"tion":272,"ar":273,"ed":274,"at":275,"Ġc":276,"Ġp":277,"Ġa":278,"Ġl":279,"Ġand":280,"og":281,"is":282,"ro":283,"he":284,"Ġm":285,"it":286,"Ġd":287,"Ġf":288,"ation":289,"ent":290,"ic":291,"ĠL":292,"et":293,"el":294,"mp":295,"as":296,"ec":297,"st":298,"Ġin":299,"Ġre":300,"Ġw":301,"Ġo":302,"ac":303,"Ġe":304,"Ġthe":305,"le":306,"ĠS":307,"Ġlog":308,"Ġb":309,"od":310,"20":311,"ce":312,"un":313,"us":314,"ab":315,"Ġ[":316,"ag":317,"Ġ(":318,"ĠI":319,"ang":320,"ly":321,"ĠA":322,"ut":323,"om":324,"Ġto":325,"id":326,"il":327,"ĠC":328,"ur":329,"tr":330,"em":331,"ig":332,"ĠT":333,"Ġof":334,"âĢ":335,"ĠY":336,"ain":337,"202":338,"10":339,"per":340,"Ġon":341,"LM":342,"ow":343,"aly":344,"Ġh":345,"Ġfor":346,"ul":347,"Ġcon":348,"am":349,"ter":350,"ve":351,"ĠM":352,"ĠF":353,"Ġth":354,"ev":355,"ine":356,"Ġor":357,"ch":358,"ad":359,"ith":360,"ol":361,"if":362,"tic":363,"ity":364,"ĠR":365,"ĠIn":366,"ĠH":367,"ure":368,"Ġpro":369,"omp":370,"Ġn":371,"Ġst":372,"Ġg":373,"ĠLLM":374,"Ġv":375,"Ġsu":376,"th":377,"sis":378,"Ġev":379,"ex":380,"Ġex":381,"Ġ202":382,"ĠP":383,"ĠZ":384,"odel":385,"age":386,"iz":387,"ĠB":388,"Ġwith":389,"ars":390,"ts":391,"ss":392,"are":393,"Ġis":394,"ate":395,"ĠG":396,"ĠJ":397,"ting":398,"ĠE":399,"qu":400,"ong":401,"pl":402,"ess":403,"Ġmodel":404,"und":405,"iv":406,"),":407,"uc":408,"ection":409,"hen":410,"ĠD":411,"ased":412,"mpl":413,"Log":414,"ot":415,"ers":416,"ap":417,"ĠU":418,"Ġpre":419,"and":420,"Ġas":421,"].":422,"of":423,"ĠW":424,"ext":425,"Ġus":426,"Ġr":427,"EE":428,"Ġal":429,"str":430,"11":431,"mar":432,"ment":433,"ren":434,"able":435,"Ġare":436,"based":437,"ener":438,"ĠN":439,"ask":440,"ĠZh":441,"ps":442,"tive":443,"to":444,"ies":445,"tern":446,"ud":447,"ail":448,"os":449,"pre":450,"alysis":451,"Ġ1":452,"ence":453,"orm":454,"ĠLog":455,"oc":456,"empl":457,"all":458,"Ġpars":459,"ational":460,"Ġdet":461,"igh":462,"ia":463,"Ġcomp":464,"im":465,"ir":466,"up":467,"omaly":468,"fe":469,"ging":470,"âĢĵ":471,"tt":472,"ge":473,"Ġlogs":474,"Ġcont":475,"ver":476,"Ġthat":477,"Ġtr":478,"ear":479,"oi":480,"ated":481,"Ġwh":482,"ion":483,"tri":484,"ore":485,"ware":486,"feren":487,"log":488,"ork":489,"ĠLi":490,"um":491,"ross":492,"//":493,"tim":494,"ttps":495,"ates":496,"RL":497,"aus":498,"Ġmet":499,"ew":500,"Ġen":501,"ĠX":502,"Ġ10":503,"angu":504,"yst":505,"Ġtask":506,"Ġbe":507,"Ġgener":508,"anguage":509,"ility":510,"Ġdetection":511,"ystem":512,".,":513,"pp":514,"ations":515,"://":516,"ally":517,"ug":518,"org":519,"Ġac":520,"Ġinc":521,"ach":522,"oft":523,"ff":524,"ost":525,"ric":526,"ĠYes":527,"ĠURL":528,"form":529,"ĠO":530,"vis":531,"ings":532,"ents":533,"ĠK":534,"Ġtempl":535,"Ġanomaly":536,"Ġhttps":537,"ages":538,"ect":539,"ference":540,"PT":541,"Ġpr":542,"Ġ2025":543,"Ġparsing":544,"ke":545,"ten":546,"pervis":547,"con":548,"Ġanalysis":549,"Ġde":550,"rec":551,"ering":552,"under":553,"oftware":554,"ĠTh":555,"Ġpromp":556,"Ġmodels":557,"hod":558,"Ġby":559,"ay":560,"ip":561,"ort":562,"rom":563,"eng":564,"ign":565,"triev":566,"45":567,"ability":568,"ĠCon":569,"dic":570,"ĠâĢ":571,"ari":572,"Ġlogging":573,"ode":574,"ization":575,"alu":576,"idence":577,"Ġsum":578,"ao":579,"pervised":580,"Ġsummar":581,"ance":582,"Ġcan":583,"put":584,"ause":585,"Ġstr":586,"Ġlanguage":587,"ailure":588,"aper":589,"sent":590,"Ġad":591,"Ġoper":592,"pec":593,"Ġsystem":594,"arge":595,"Ġdoi":596,"EEE":597,"gine":598,"Ġfrom":599,"ich":600,"ER":601,"ition":602,"line":603,"ĠSh":604,"uct":605,"21":606,"ord":607,"Ġch":608,"36":609,"Ġit":610,"Ġretriev":611,"Ġexpl":612,"present":613,"pen":614,"upervised":615,"âĢĿ":616,"Ġdi":617,"gineering":618,"low":619,"ind":620,"Ġcontext":621,"Pro":622,"Ġpar":623,"Ġwork":624,"time":625,"ile":626,"ning":627,"ser":628,"ĠLLMs":629,"ternational":630,"ĠâĢľ":631,"ib":632,"aining":633,"ERT":634,"mb":635,"ted":636,"ific":637,"ĠZhang":638,").":639,"yp":640,"ans":641,"Ġevidence":642,"Ġet":643,"int":644,"tions":645,"ĠEn":646,"av":647,"Ġsc":648,"Ġcl":649,"IC":650,"ous":651,"enc":652,"Ġbut":653,"ĠInternational":654,"Ġlarge":655,"ical":656,"ement":657,"imp":658,"li":659,"ust":660,"Ġ.":661,"Ġun":662,"Ġunder":663,"ines":664,"tif":665,"Ġcom":666,"Ġapp":667,"ĠSoftware":668,"ĠAn":669,"ĠGPT":670,"15":671,"CM":672,"Ġ3":673,"Ġsem":674,"trac":675,"Ġgeneration":676,"18":677,"ei":678,"ard":679,"ĠIEEE":680,"utput":681,"tics":682,"Ġpredic":683,"LLM":684,"so":685,"ream":686,"ors":687,"Ġpages":688,"ĠConference":689,"ative":690,"op":691,"ass":692,"ulti":693,"Ġgro":694,"Ġ2024":695,"1145":696,"Ġro":697,"attern":698,"here":699,"abel":700,"evel":701,"ucture":702,"19":703,"37":704,"ful":705,"ll":706,"Ġrec":707,"Ġstud":708,"Ġmethod":709,"Ġacross":710,"25":711,"SE":712,"equ":713,"ient":714,"sh":715,"Ġ4":716,"edd":717,"edings":718,"Ġdes":719,"lev":720,"ceedings":721,"ĠCh":722,"ipel":723,"duc":724,"ata":725,"ely":726,"ĠYu":727,"rics":728,"CA":729,"yu":730,"ĠQ":731,"Ġar":732,"ant":733,"Ġcode":734,"Ġpaper":735,"ack":736,"Ġprac":737,"ak":738,"bo":739,"Ġsh":740,"agn":741,"Ġvari":742,"ĠNo":743,"Ġtasks":744,"rect":745,"16":746,"Ġat":747,"Ġdec":748,"Ġoutput":749,"Ġevalu":750,"Ġretrieval":751,"ii":752,"ian":753,"Ġ+":754,"Ġ6":755,"ary":756,"Ġthey":757,"ĠChen":758,"Ġnot":759,"Ġusing":760,"earch":761,"Proceedings":762,"oy":763,"Ġ/":764,"Ġimp":765,"antic":766,"Ġpattern":767,"Ġpipel":768,"Ġman":769,"Ġfailure":770,"Ġrep":771,"Ġtemplates":772,"ms":773,"ual":774,"ther":775,"Xiv":776,"ep":777,"han":778,"xiv":779,"Ġ20":780,"Ġsur":781,"arxiv":782,"Ġlear":783,"roach":784,"Ġmess":785,"ason":786,"Ġrepresent":787,"abl":788,"abs":789,"ĠIC":790,"ĠComp":791,"Ġoften":792,"ight":793,"Ġwhile":794,"Ġtemplate":795,"indow":796,"ĠEngineering":797,"17":798,"ri":799,"ution":800,"ĠV":801,"ench":802,"ese":803,"Ġcor":804,"Ġmain":805,"Ġinto":806,"own":807,"ift":808,"Ġuse":809,"Ġincid":810,"ou":811,"text":812,"Ġqu":813,"est":814,"Ġsel":815,"Ġlabel":816,"Ġres":817,"Ġwhen":818,"ained":819,"ĠLiu":820,"ix":821,"over":822,"Ġmulti":823,"Ġdif":824,"Ġinter":825,"acy":826,"Ġemb":827,"ĠSupervised":828,"00":829,"23":830,"aw":831,"ram":832,"tiv":833,"ality":834,"Ġset":835,"ature":836,"stream":837,"oder":838,"utom":839,"ult":840,"Ġsuch":841,"ugh":842,"ĠThis":843,"pecific":844,"14":845,"GL":846,"ound":847,"Ġhe":848,"ens":849,"Ġtyp":850,"Ġhigh":851,"vey":852,"Ġthis":853,"ĠBGL":854,"du":855,"doi":856,"tun":857,"ating":858,"Ġdr":859,"amet":860,"ize":861,"ffic":862,"Ġprompt":863,"Ġstructure":864,"24":865,"Ġdis":866,"Ġwe":867,"ĠAc":868,"ĠThe":869,"ĠInProceedings":870,"Ġwhich":871,"Ġmetrics":872,"ugment":873,"Ġcomm":874,"Ġsemantic":875,"Ġpapers":876,"35":877,"ber":878,"lud":879,"ness":880,"pro":881,"uang":882,"Ġmay":883,"ace":884,"ome":885,"ever":886,"Ġevent":887,"Ġdiagn":888,"te":889,"Ġ-":890,"Ġstat":891,"ency":892,"Ġembedd":893,"08":894,"cur":895,"ead":896,"ie":897,"iew":898,"main":899,"ision":900,"Ġwhere":901,"ĠYang":902,"ĠHe":903,"ĠUn":904,"mark":905,"iao":906,"serv":907,"roaches":908,"enchmark":909,"ownstream":910,"DF":911,"In":912,"cr":913,"cess":914,"fer":915,"flow":916,"now":917,"Ġid":918,"Ġover":919,"ural":920,"Ġonly":921,"Ġconstr":922,"olog":923,"Ġsummarization":924,"pend":925,"Ġdrift":926,"39":927,"ai":928,"atic":929,"Ġke":930,"ath":931,"Ġper":932,"icit":933,"2025":934,"ĠWang":935,"Ġcompon":936,"Ġprompting":937,"Ġoperational":938,"Ġsystems":939,"Ġstudies":940,"ĠICL":941,"12":942,"TA":943,"specific":944,"the":945,"yle":946,"ale":947,"ets":948,"ĠRo":949,"ploy":950,"ĠXu":951,"Ġsurvey":952,"DFS":953,"110":954,"ACM":955,"ied":956,"Ġtext":957,"ist":958,"etw":959,"mpt":960,"training":961,"Ġalso":962,"level":963,"Ġoutputs":964,"Ġlearning":965,"Ġincident":966,"utomated":967,"pr":968,"Ġtime":969,"err":970,"Ġcause":971,"Ġmost":972,"ase":973,"ĠRCA":974,"sist":975,"ized":976,"ĠBERT":977,"apt":978,"ĠWe":979,"Ġdeploy":980,"equence":981,"ĠComput":982,"BERT":983,"Ġ7":984,"ator":985,"ethod":986,"Ġwindow":987,"ame":988,"ĠHDFS":989,"Ġclass":990,"Ġprediction":991,"Ġdesign":992,"gr":993,"iation":994,"our":995,"wh":996,"ree":997,"entif":998,"Ġfe":999,"stead":1000,"Ġreason":1001,"act":1002,"ide":1003,"Ġprov":1004,"ĠJi":1005,"Ġcontro":1006,"ial":1007,"ple":1008,"Ġag":1009,"Ġmore":1010,"Ġdata":1011,"Ġob":1012,"ĠTr":1013,"Ġ2023":1014,"heng":1015,"uping":1016,"Ġenc":1017,"ĠOn":1018,"context":1019,"Ġexplicit":1020,"Ġapproaches":1021,"Ġmany":1022,"26":1023,"SS":1024,"mall":1025,"out":1026,"ue":1027,"Ġ9":1028,"inc":1029,"als":1030,"Ġcost":1031,"Ġlevel":1032,"Ġdownstream":1033,"ecause":1034,"Ġreli":1035,"tical":1036,"Ġsupp":1037,"imit":1038,"Ġimpro":1039,"Ġpatterns":1040,"Ġmessage":1041,"ugmented":1042,"Ġcommon":1043,"curacy":1044,"Ġdeployment":1045,"03":1046,"13":1047,"fig":1048,"oth":1049,"yn":1050,"ond":1051,"ish":1052,"road":1053,"ĠLe":1054,"Ġevents":1055,"Ġextrac":1056,"Ġrun":1057,"Ġtrans":1058,"shot":1059,"Ġpipelines":1060,"ables":1061,"duce":1062,"fficient":1063,"Ġkey":1064,"1109":1065,"ĠOnline":1066,"fin":1067,"ire":1068,"ior":1069,"ues":1070,"analysis":1071,"end":1072,"Ġsp":1073,"atch":1074,"Ġlong":1075,"Ġloc":1076,"ech":1077,"Ġrequ":1078,"lem":1079,"Ġbound":1080,"Ġhow":1081,"Ġorg":1082,"Ġvia":1083,"tings":1084,"ormal":1085,"MA":1086,"oper":1087,"supervised":1088,"ui":1089,"Ġ21":1090,"Ġsign":1091,"edge":1092,"ecur":1093,"ache":1094,"ĠPA":1095,"ssoc":1096,"ateg":1097,"uction":1098,"Ġraw":1099,"Ġ18":1100,"ird":1101,"trib":1102,"Ġadd":1103,"itional":1104,"Ġparamet":1105,"Ġworkflow":1106,"Ġevaluation":1107,"Ġmultiple":1108,"Ġstructured":1109,"bust":1110,"for":1111,"fore":1112,"ger":1113,"ium":1114,"osis":1115,"sc":1116,"tice":1117,"ene":1118,"ory":1119,"Ġcross":1120,"ases":1121,"style":1122,"ĠSem":1123,"Ġbroad":1124,"Ġtool":1125,"Ġconc":1126,"Ġthese":1127,"Ġwhat":1128,"Ġdepend":1129,"Ġground":1130,"Ġmethods":1131,"ĠarXiv":1132,"rectly":1133,"Ġsettings":1134,"nowl":1135,"ecurity":1136,"ssociation":1137,"GPT":1138,"ik":1139,"ub":1140,"Ġ2":1141,"reat":1142,"ress":1143,"requ":1144,"entic":1145,"oring":1146,"Ġsearch":1147,"Ġsome":1148,"arly":1149,"Ġfa":1150,"Ġinstead":1151,"Ġremain":1152,"ĠACM":1153,"ules":1154,"Ġne":1155,"Ġinclud":1156,"Ġuseful":1157,"ology":1158,"42":1159,"],":1160,"ces":1161,"gener":1162,"ok":1163,"Ġco":1164,"rough":1165,"Ġfine":1166,"ically":1167,"ast":1168,"aces":1169,"Ġtok":1170,"Ġform":1171,"adig":1172,"iven":1173,"formation":1174,"tuning":1175,"Ġconstrain":1176,"print":1177,"nowledge":1178,"79":1179,"LE":1180,"hav":1181,"iel":1182,"par":1183,"rid":1184,"se":1185,"uo":1186,"uan":1187,"ving":1188,"view":1189,"ward":1190,"red":1191,"Ġsame":1192,"Ġsmall":1193,"atural":1194,"Ġfram":1195,"ĠAssociation":1196,"arsing":1197,"pret":1198,"Ġcompar":1199,"logs":1200,"âĢĿ,":1201,"ification":1202,"Ġroot":1203,"Ġvariables":1204,"Ġquality":1205,"Ġfeature":1206,"Ġreasoning":1207,"echn":1208,"):":1209,"43":1210,"53":1211,"RA":1212,"augmented":1213,"iti":1214,"sup":1215,"with":1216,"Ġ8":1217,"Ġk":1218,"one":1219,"till":1220,"ingle":1221,"Ġsoftware":1222,"Ġanaly":1223,"atas":1224,"Ġpl":1225,"ise":1226,"Ġbecause":1227,"2023":1228,"ĠGA":1229,"Ġpreprint":1230,"ments":1231,"ocus":1232,"irst":1233,"Ġtrad":1234,"ĠXiao":1235,"Ġrobust":1236,"Ġpractice":1237,"Ġidentif":1238,"Ġsignals":1239,"47":1240,"GE":1241,"La":1242,"ah":1243,"amp":1244,"blem":1245,"ey":1246,"iqu":1247,"ppl":1248,"uis":1249,"Ġup":1250,"ery":1251,"arXiv":1252,"Ġcaus":1253,"ice":1254,"Ġref":1255,"acts":1256,"ĠRe":1257,"Ġno":1258,"Ġevol":1259,"Ġused":1260,"struction":1261,"ĠZhou":1262,"Ġtraces":1263,"ions":1264,"Ġbehav":1265,"Ġgrouping":1266,"Ġcorp":1267,"Ġdiagnosis":1268,"Ġstatement":1269,"etwork":1270,"ĠSemi":1271,"LaMA":1272,"01":1273,"49":1274,"75":1275,"cent":1276,"comp":1277,"failure":1278,"ier":1279,"ially":1280,"oint":1281,"ven":1282,"ves":1283,"ank":1284,"Ġso":1285,"Ġlimit":1286,"ogene":1287,"Ġma":1288,"ices":1289,"Ġbenchmark":1290,"ĠMa":1291,"oll":1292,"ollow":1293,"ĠJia":1294,"Ġrare":1295,"imil":1296,"sour":1297,"Ġdescr":1298,"levant":1299,"Ġpipeline":1300,"Ġembeddings":1301,"ĠUnsup":1302,"Ġobserv":1303,"Ġsupport":1304,"figur":1305,"Ġrequire":1306,"Ġconstraints":1307,"62":1308,"77":1309,"ampl":1310,"bird":1311,"model":1312,"rit":1313,"ras":1314,"templ":1315,"yb":1316,"Ġj":1317,"Ġerr":1318,"inguis":1319,"orient":1320,"Ġsequence":1321,"Ġstill":1322,"Ġsingle":1323,"arg":1324,"aries":1325,"stand":1326,"Ġinference":1327,"Ġreal":1328,"acing":1329,"Ġemp":1330,"Ġeff":1331,"lex":1332,"ĠSt":1333,"ĠAd":1334,"ĠAs":1335,"omain":1336,"ill":1337,"trained":1338,"2024":1339,"terogene":1340,"ĠMethod":1341,"Ġthan":1342,"ĠHong":1343,"Ġnormal":1344,"imin":1345,"ummar":1346,"formance":1347,"ĠThunder":1348,"Ġoperator":1349,"Ġchall":1350,"Ġexplan":1351,"Ġpractical":1352,"Ġdiff":1353,"Ġtypically":1354,"Ġcomponents":1355,"aptation":1356,"Ġruntime":1357,"oriented":1358,"28":1359,"GA":1360,"LA":1361,"Sup":1362,"ck":1363,"ds":1364,"hu":1365,"ject":1366,"lated":1367,"oT":1368,"ough":1369,"Ġ&":1370,"Ġes":1371,"erv":1372,"alization":1373,"arr":1374,"ators":1375,"Ġab":1376,"Ġautomated":1377,"Ġlat":1378,"Ġreus":1379,"ĠSu":1380,"ements":1381,"Ġthrough":1382,"Ġvers":1383,"izes":1384,"aptive":1385,"ĠWei":1386,"ose":1387,"Ġtraining":1388,"Ġengineering":1389,"Ġcomb":1390,"Ġstudy":1391,"ducing":1392,"Ġartif":1393,"Ġdecision":1394,"Ġself":1395,"ixed":1396,"Ġinterpret":1397,"Ġorgan":1398,"Ġgrounding":1399,"source":1400,"ybrid":1401,"terogeneous":1402,"ĠThunderbird":1403,"55":1404,"92":1405,"FO":1406,"IEEE":1407,"NFO":1408,"ael":1409,"aware":1410,"di":1411,"ean":1412,"facing":1413,"her":1414,"ily":1415,"loc":1416,"min":1417,"we":1418,"Ġy":1419,"Ġcoll":1420,"iss":1421,"heck":1422,"eli":1423,"ective":1424,"ecution":1425,"Ġint":1426,"Ġop":1427,"Ġback":1428,"omal":1429,"Ġonline":1430,"ull":1431,"ĠMan":1432,"ify":1433,"ĠHuang":1434,"Ġstable":1435,"ĠPro":1436,"osition":1437,"pecially":1438,"ords":1439,"Ġchang":1440,"Ġretrieved":1441,"Ġparadig":1442,"ICSE":1443,"like":1444,"Ġreport":1445,"Ġ2020":1446,"Ġmessages":1447,"Ġdifferen":1448,"cessing":1449,"sistent":1450,"Ġcontrol":1451,"Ġbroader":1452,"Ġbehavior":1453,"centric":1454,"inguistics":1455,"Ġartifacts":1456,"68":1457,"af":1458,"ati":1459,"ave":1460,"det":1461,"ive":1462,"itive":1463,"mer":1464,"med":1465,"ov":1466,"oop":1467,"tail":1468,"ument":1469,"ingly":1470,"orts":1471,"Ġcall":1472,"Ġcover":1473,"hether":1474,"Ġmak":1475,"Ġfam":1476,"ects":1477,"ecting":1478,"Ġopen":1479,"actions":1480,"Ġbased":1481,"cep":1482,"ĠAl":1483,"âĢĻ":1484,"ĠMing":1485,"olum":1486,"ified":1487,"Ġver":1488,"Ġsub":1489,"ivers":1490,"ĠWu":1491,"Ġuser":1492,"irical":1493,"uman":1494,"Ġaccuracy":1495,"ICL":1496,"ĠAnalysis":1497,"duces":1498,"ĠQi":1499,"Ġrepresentation":1500,"Ġdiagnos":1501,"Ġembedding":1502,"Ġcomponent":1503,"Ġrobustness":1504,"07":1505,"29":1506,"88":1507,"Ac":1508,"Con":1509,"OU":1510,"ced":1511,"https":1512,"lic":1513,"language":1514,"ring":1515,"tle":1516,"tain":1517,"ymp":1518,"Ġ5":1519,"ants":1520,"anomaly":1521,"res":1522,"alid":1523,"Ġfrequ":1524,"Ġfocus":1525,"Ġfollow":1526,"ĠLu":1527,"ĠLLaMA":1528,"ell":1529,"Ġinte":1530,"Ġeach":1531,"ĠSp":1532,"ĠSup":1533,"ĠID":1534,"igu":1535,"evidence":1536,"Ġproblem":1537,"Ġgr":1538,"Ġexp":1539,"ĠPre":1540,"Ġwithout":1541,"ĠJin":1542,"off":1543,"osium":1544,"Ġdetect":1545,"ĠThese":1546,"enges":1547,"Ġrecur":1548,"Ġ68":1549,"Ġheterogeneous":1550,"Ġstatements":1551,"Ġprovide":1552,"ĠJiang":1553,"ĠTrans":1554,"Ġimprove":1555,"Ġtoken":1556,"Ġknowledge":1557,"imilar":1558,"Ġdiffic":1559,"hua":1560,"Ġespecially":1561,"OUGE":1562,"ymposium":1563,"Ġintegr":1564,"04":1565,"05":1566,"40":1567,"64":1568,"En":1569,"RE":1570,"We":1571,"de":1572,"oud":1573,"paper":1574,"ron":1575,"task":1576,"wo":1577,"ww":1578,"yi":1579,"enti":1580,"erature":1581,"Ġsy":1582,"Ġsimilar":1583,"Ġanomal":1584,"Ġcand":1585,"Ġav":1586,"Ġappl":1587,"Ġll":1588,"Ġlight":1589,"rop":1590,"iterature":1591,"Ġdevel":1592,"Ġfew":1593,"etri":1594,"mpting":1595,"Ġins":1596,"Ġreview":1597,"Ġwhether":1598,"Ġthem":1599,"Ġboth":1600,"ung":1601,"agement":1602,"urbo":1603,"ĠYing":1604,"Ġhand":1605,"uld":1606,"Ġconfigur":1607,"ĠFor":1608,"eval":1609,"Ġproject":1610,"Ġnatural":1611,"Ġstream":1612,"Ġvs":1613,"Ġvalu":1614,"Ġ2021":1615,"ared":1616,"ĠJun":1617,"ĠJian":1618,"ĠEx":1619,"ĠDe":1620,"ĠDong":1621,"aph":1622,"app":1623,"ĠWen":1624,"ĠZhao":1625,"Ġparsers":1626,"ework":1627,"ortant":1628,"ichael":1629,"presentation":1630,"Ġdirectly":1631,"Ġrecent":1632,"epar":1633,"Ġrepresentations":1634,"Ġlabels":1635,"ensitive":1636,"Ġwindows":1637,"Ġprovid":1638,"Ġparameters":1639,"scale":1640,"Ġneed":1641,"Ġformat":1642,"Ġfeatures":1643,"ique":1644,"Ġmake":1645,"amples":1646,"weight":1647,"22":1648,"31":1649,"96":1650,"AR":1651,"An":1652,"Comp":1653,"PI":1654,"RCA":1655,"St":1656,"The":1657,"]).":1658,"ativ":1659,"cy":1660,"com":1661,"dr":1662,"een":1663,"face":1664,"gro":1665,"let":1666,"man":1667,"system":1668,"ĠâĢĵ":1669,"inal":1670,"ero":1671,"ert":1672,"Ġsever":1673,"Ġsyn":1674,"Ġpo":1675,"Ġliterature":1676,"Ġdatas":1677,"ĠLinguistics":1678,"Ġinv":1679,"Ġreduce":1680,"Ġword":1681,"active":1682,"ĠSymposium":1683,"ĠINFO":1684,"ĠMichael":1685,"Ġthen":1686,"event":1687,"ures":1688,"Ġven":1689,"sisten":1690,"Ġexecution":1691,"ĠPr":1692,"ĠZheng":1693,"ĠEv":1694,"Ġmodeling":1695,"ivacy":1696,"Ġpretraining":1697,"Ġassist":1698,"irit":1699,"Ġbefore":1700,"Ġincre":1701,"ected":1702,"tenance":1703,"rection":1704,"Ġcontextual":1705,"Ġscale":1706,"ences":1707,"iii":1708,"Ġresearch":1709,"tuned":1710,"ĠRoot":1711,"ĠComputing":1712,"ĠComputational":1713,"Ġcontroll":1714,"Ġexplicitly":1715,"tribut":1716,"Ġremains":1717,"LEU":1718,"Ġframework":1719,"Ġtrade":1720,"Ġcorpus":1721,"standing":1722,"Ġdifferent":1723,"ĠSpirit":1724,"Ġdifficult":1725,"Ġcandid":1726,"Ġdeveloper":1727,"etrieval":1728,"48":1729,"Ag":1730,"ISS":1731,"PA":1732,"PC":1733,"ST":1734,"Table":1735,"ax":1736,"ci":1737,"cord":1738,"dec":1739,"free":1740,"has":1741,"ould":1742,"qi":1743,"ule":1744,"wen":1745,"window":1746,"Ã¡":1747,"Ġ11":1748,"inj":1749,"inter":1750,"reg":1751,"retriev":1752,"Ġtreat":1753,"Ġsecurity":1754,"arning":1755,"Ġcur":1756,"Ġport":1757,"isk":1758,"isting":1759,"Ġmod":1760,"Ġmust":1761,"entr":1762,"ett":1763,"etter":1764,"etrics":1765,"Ġinser":1766,"Ġrely":1767,"Ġrelevant":1768,"Ġour":1769,"ĠSun":1770,"ĠSystem":1771,"2020":1772,"ĠAI":1773,"ĠAr":1774,"ĠCl":1775,"urther":1776,"ĠYi":1777,"ĠYic":1778,"adoop":1779,"ĠROUGE":1780,"Ġ2022":1781,"apid":1782,"Ġuses":1783,"struct":1784,"rent":1785,"Ġparser":1786,"Ġstrong":1787,"Ġadaptation":1788,"ĠShi":1789,"ibr":1790,"Ġdecomp":1791,"Ġlearn":1792,"Ġrepresentative":1793,"Ġselection":1794,"Ġlabeled":1795,"ather":1796,"etween":1797,"mptom":1798,"what":1799,"Ġencoder":1800,"includ":1801,"Ġextraction":1802,"finition":1803,"Ġ219":1804,"Ġworkflows":1805,"Ġfault":1806,"Ġcauses":1807,"Ġdescrip":1808,"Ġemphas":1809,"Ġlatency":1810,"Ġreuse":1811,"olume":1812,"46":1813,"70":1814,"76":1815,"Th":1816,"cl":1817,"emp":1818,"ears":1819,"eff":1820,"ges":1821,"iers":1822,"lp":1823,"lag":1824,"ne":1825,"ood":1826,"ustr":1827,"yang":1828,"Ġtechn":1829,"Ġcateg":1830,"Ġline":1831,"head":1832,"Ġmo":1833,"its":1834,"Ġdem":1835,"Ġdomain":1836,"Ġfiel":1837,"Ġfirst":1838,"Ġfurther":1839,"icro":1840,"ication":1841,"ĠLin":1842,"ĠLyu":1843,"ash":1844,"acl":1845,"agent":1846,"Ġhybrid":1847,"Ġhave":1848,"ĠModel":1849,"ĠMeng":1850,"ĠFTA":1851,"ĠFGA":1852,"Ġvalid":1853,"Ġexamples":1854,"Ġiss":1855,"ĠGu":1856,"ĠDan":1857,"Ġrapid":1858,"Ġalign":1859,"ĠZhi":1860,"ffline":1861,"ĠâĢĻ":1862,"ibin":1863,"ible":1864,"mbigu":1865,"Ġunique":1866,"Ġsemi":1867,"Ġshould":1868,"Ġimportant":1869,"Ġfailures":1870,"Ġcorrect":1871,"Ġincidents":1872,"dustr":1873,"istor":1874,"BERTa":1875,"tribution":1876,"Ġparameter":1877,"paramet":1878,"ample":1879,"Ġdecisions":1880,"umentation":1881,"Ġfrequent":1882,"Ġrecurring":1883,"ĠTransactions":1884,"Ġsymptom":1885,"sistency":1886,"/.":1887,"30":1888,"86":1889,"94":1890,"LP":1891,"Pars":1892,"Re":1893,"Ro":1894,"Yes":1895,"]),":1896,"cause":1897,"ek":1898,"iency":1899,"jie":1900,"ma":1901,"metrics":1902,"nn":1903,"oun":1904,"ris":1905,"utions":1906,"vari":1907,"word":1908,"onom":1909,"onstr":1910,"related":1911,"Ġtarg":1912,"ora":1913,"Ġsequ":1914,"Ġsepar":1915,"Ġsensitive":1916,"Ġcap":1917,"Ġass":1918,"Ġaugment":1919,"Ġambigu":1920,"Ġless":1921,"Ġlay":1922,"ison":1923,"row":1924,"Ġmat":1925,"Ġdo":1926,"Ġfil":1927,"Ġfixed":1928,"ectiv":1929,"Ġinput":1930,"Ġinformation":1931,"Ġinstruction":1932,"action":1933,"Ġefficient":1934,"Ġearly":1935,"lement":1936,"Ġbetter":1937,"uning":1938,"ĠAutomated":1939,"ĠAPI":1940,"Ġtoward":1941,"ĠCoT":1942,"emb":1943,"ĠTao":1944,"Ġone":1945,"Ġhuman":1946,"Ġhistor":1947,"ithful":1948,"ĠHow":1949,"ĠHao":1950,"Ġnum":1951,"Ġnetwork":1952,"Ġnarr":1953,"Ġview":1954,"Ġprec":1955,"Ġrules":1956,"Ġrisk":1957,"ternal":1958,"ails":1959,"ĠLogs":1960,"logging":1961,"Ġend":1962,"achine":1963,"ĠOffline":1964,"Ġprompts":1965,"Ġsummary":1966,"Ġstrateg":1967,"ava":1968,"Ġscore":1969,"186":1970,"Ġ42":1971,"ĠYuan":1972,"Ġtype":1973,"Ġhighl":1974,"fficiency":1975,"ĠAcross":1976,"Ġclassification":1977,"Ġdesigns":1978,"finement":1979,"Ġanalytics":1980,"Ġupd":1981,"Ġlimited":1982,"Ġerror":1983,"Ġchallenges":1984,"Ġexplanation":1985,"eliability":1986,"Ġintro":1987,"Ġlightweight":1988,"Ġconfiguration":1989,"driven":1990,"34":1991,"60":1992,"74":1993,"80":1994,"84":1995,"Ev":1996,"URL":1997,"air":1998,"by":1999,"cal":2000,"ious":2001,"large":2002,"label":2003,"method":2004,"parsing":2005,"sel":2006,"sequence":2007,"where":2008,"ying":2009,"zh":2010,"âĨ":2011,"Ġ<":2012,"Ġ=":2013,"Ġti":2014,"Ġtim":2015,"tition":2016,"ening":2017,"erver":2018,"Ġtwo":2019,"orting":2020,"Ġsess":2021,"Ġsour":2022,"atGPT":2023,"Ġcle":2024,"Ġph":2025,"isy":2026,"Ġme":2027,"Ġmask":2028,"Ġmatch":2029,"ite":2030,"ick":2031,"ĠLanguage":2032,"asingly":2033,"echan":2034,"econd":2035,"ĠSch":2036,"ĠSection":2037,"oders":2038,"2015":2039,"ĠAU":2040,"uture":2041,"ident":2042,"ĠCode":2043,"ĠTask":2044,"âĢĶ":2045,"ĠFine":2046,"olic":2047,"olution":2048,"olutions":2049,"tick":2050,"ĠReliability":2051,"ĠHu":2052,"ĠHuo":2053,"Ġprop":2054,"Ġstand":2055,"Ġgu":2056,"Ġsug":2057,"Ġsupervis":2058,"though":2059,"expl":2060,"ĠPinj":2061,"izing":2062,"ĠED":2063,"ĠDi":2064,"apache":2065,"Ġalone":2066,"structure":2067,"ĠNew":2068,"ĠZhong":2069,"ailable":2070,"osit":2071,"ights":2072,"ĠXin":2073,"Ġgenerate":2074,"aching":2075,"Ġprog":2076,"Ġprivacy":2077,"Ġdefinition":2078,"diction":2079,"Ġsystematic":2080,"Ġcho":2081,"Ġchain":2082,"ibility":2083,"Ġunsupervised":2084,"Ġ34":2085,"Ġvariable":2086,"Ġmanual":2087,"Ġmaintenance":2088,"bert":2089,"Ġ98":2090,"Ġreliable":2091,"ĠLee":2092,"Ġextracted":2093,"Ġtransform":2094,"Ġboundaries":2095,"ublic":2096,"Ġinclude":2097,"RAG":2098,"ities":2099,"Ġrefl":2100,"compon":2101,"Ġrarely":2102,"templates":2103,"ĠHongyu":2104,"Ġversus":2105,"lock":2106,"Ġoptim":2107,"Ġbackb":2108,"Ġcoverage":2109,"Ġgraph":2110,"Ġdevelopers":2111,"Ġmotiv":2112,"Ġsequences":2113,"embedd":2114,"echanis":2115,"ĠPinjia":2116,"*>":2117,"02":2118,"52":2119,"54":2120,"61":2121,"99":2122,"AC":2123,"AI":2124,"Ad":2125,"Fig":2126,"No":2127,"Ops":2128,"cor":2129,"check":2130,"der":2131,"eps":2132,"ged":2133,"hang":2134,"how":2135,"high":2136,"hao":2137,"hadoop":2138,"mo":2139,"oh":2140,"run":2141,"ually":2142,"van":2143,"xi":2144,"yond":2145,"ze":2146,"Ġif":2147,"ina":2148,"inu":2149,"ints":2150,"inally":2151,"inery":2152,"antics":2153,"ons":2154,"ones":2155,"only":2156,"read":2157,"resh":2158,"enge":2159,"Ġtuning":2160,"Ġcore":2161,"Ġabo":2162,"Ġlines":2163,"Ġlik":2164,"Ġmul":2165,"Ġmechanis":2166,"Ġdoc":2167,"Ġfull":2168,"Ġflag":2169,"ĠLear":2170,"ether":2171,"mpirical":2172,"step":2173,"Ġindustr":2174,"Ġwid":2175,"Ġother":2176,"Ġthere":2177,"ĠSummar":2178,"odal":2179,"abor":2180,"abil":2181,"ĠAt":2182,"omm":2183,"ĠTian":2184,"ĠYint":2185,"107":2186,"ults":2187,"Ġcond":2188,"Ġconven":2189,"ĠMar":2190,"even":2191,"Ġprocess":2192,"Ġstatic":2193,"Ġsupervised":2194,"Ġexempl":2195,"ĠPar":2196,"ĠBenchmark":2197,"ĠGen":2198,"essage":2199,"Logger":2200,"Ġrank":2201,"Ġcomput":2202,"Ġcomplet":2203,"Ġtrained":2204,"timodal":2205,"Ġmetric":2206,"ĠXie":2207,"Ġ103":2208,"Ġbeyond":2209,"Ġaction":2210,"achinery":2211,"often":2212,"ĠKar":2213,"Ġprior":2214,"constr":2215,"aluation":2216,"Ġsummarize":2217,"Ġadaptive":2218,"Ġoperators":2219,"3639":2220,"Ġiter":2221,"indings":2222,"Ġworks":2223,"Ġscoring":2224,"Ġcloud":2225,"Ġunified":2226,"Ġunderstanding":2227,"ĠAnomaly":2228,"Ġpredict":2229,"Ġrecords":2230,"ĠChang":2231,"book":2232,"Ġevaluated":2233,"ĠAccuracy":2234,"359":2235,"crimin":2236,"ological":2237,"390":2238,"aths":2239,"Ġperform":2240,"Ġperformance":2241,"which":2242,"Ġboundary":2243,"Ġdepends":2244,"Ġfaithful":2245,"Ġcomparison":2246,"Ġidentifiers":2247,"Ġnoisy":2248,"template":2249,"directly":2250,"Ġchanges":2251,"Ġparadigms":2252,"Ġfamily":2253,"ception":2254,"Ġsimilarity":2255,"Ġanomalies":2256,"Ġavailable":2257,"Ġdatasets":2258,"Ġvenues":2259,"tributed":2260,"Ġcandidate":2261,"ISSRE":2262,"retrieval":2263,"ĠYichen":2264,"Ġdecomposition":2265,"Ġdemonstr":2266,"parameter":2267,"onomy":2268,"Ġhistorical":2269,"âĨĴ":2270,"ĠAUC":2271,"structured":2272,"Ġmultimodal":2273,"ĠYintong":2274,"06":2275,"220":2276,"44":2277,"57":2278,"71":2279,"73":2280,"NI":2281,"OR":2282,"PE":2283,"To":2284,"Tr":2285,"bin":2286,"back":2287,"base":2288,"cost":2289,"data":2290,"ef":2291,"fl":2292,"gth":2293,"greg":2294,"hance":2295,"impl":2296,"jun":2297,"ki":2298,"ld":2299,"lin":2300,"les":2301,"lish":2302,"no":2303,"normal":2304,"ra":2305,"rag":2306,"set":2307,"sive":2308,"turbo":2309,"uch":2310,"vir":2311,"wor":2312,"wei":2313,"yth":2314,"rep":2315,"representation":2316,"refinement":2317,"reening":2318,"til":2319,"ties":2320,"ern":2321,"erts":2322,"Ġter":2323,"oriz":2324,"Ġse":2325,"Ġserv":2326,"Ġcache":2327,"Ġcases":2328,"Ġcheck":2329,"Ġpure":2330,"Ġlarg":2331,"Ġmis":2332,"Ġmachine":2333,"ital":2334,"ĠLA":2335,"ectr":2336,"Ġinfer":2337,"Ġefficiency":2338,"ĠSheng":2339,"Ġbetween":2340,"usp":2341,"uss":2342,"ably":2343,"abul":2344,"ĠIt":2345,"omin":2346,"ild":2347,"igital":2348,"ĠTechn":2349,"Ġhas":2350,"Ġhard":2351,"Ġcons":2352,"ames":2353,"ters":2354,"ading":2355,"ĠRA":2356,"ĠRa":2357,"ĠRetrieval":2358,"ĠInformation":2359,"Ġvect":2360,"Ġeven":2361,"Ġexample":2362,"ĠPet":2363,"ĠPeng":2364,"ĠParsing":2365,"ĠBo":2366,"ĠBen":2367,"Ġwithin":2368,"arse":2369,"ĠJing":2370,"unded":2371,"ĠDet":2372,"LogB":2373,"Ġrather":2374,"111":2375,"rength":2376,"ĠNe":2377,"ĠNetwork":2378,"ĠZhu":2379,"udg":2380,"Ġ13":2381,"ocabul":2382,"emplate":2383,"Ġparsed":2384,"Ġcompare":2385,"Ġcomplex":2386,"ims":2387,"verall":2388,"ĠXia":2389,"Ġ100":2390,"Ġincon":2391,"ĠOpen":2392,"ĠKa":2393,"Ġsummaries":2394,"Ġadop":2395,"ĠShu":2396,"traces":2397,"tractive":2398,"llm":2399,"ĠChatGPT":2400,"duction":2401,"Ġpractic":2402,"Ġshif":2403,"Ġshift":2404,"Ġattractive":2405,"Ġreposit":2406,"Ġsurface":2407,"abled":2408,"Ġlabeling":2409,"Ġresult":2410,"000":2411,"utomatic":2412,"Ġtypes":2413,"ĠThey":2414,"ĠRoBERTa":2415,"Ġagentic":2416,"Ġlevels":2417,"Ġreliability":2418,"Ġtransfer":2419,"Ġspace":2420,"Ġlocal":2421,"Ġtokens":2422,"Ġtraditional":2423,"Ġevolving":2424,"rittle":2425,"Ġchallenge":2426,"Ġcombine":2427,"Ġparadigm":2428,"atis":2429,"detection":2430,"Ġmaking":2431,"Ġmakes":2432,"iversity":2433,"Ġdiagnostic":2434,"ential":2435,"Ġstreams":2436,"Ġvalues":2437,"Ġseveral":2438,"Ġincreasingly":2439,"axonomy":2440,"cordia":2441,"Ġstronger":2442,"Ġissues":2443,"Ġnumber":2444,"18653":2445,"Ġ<*>":2446,"tickets":2447,"Ġsupervision":2448,"Ġabout":2449,"ĠLearning":2450,"Ġwidely":2451,"viron":2452,"ython":2453,"orizon":2454,"Ġlargely":2455,"58":2456,"59":2457,"AD":2458,"BN":2459,"Ex":2460,"For":2461,"Paper":2462,"SBN":2463,"TRA":2464,"Un":2465,"])":2466,"cing":2467,"code":2468,"dl":2469,"dis":2470,"dex":2471,"gation":2472,"io":2473,"iage":2474,"lo":2475,"nal":2476,"oid":2477,"pt":2478,"ran":2479,"sem":2480,"summar":2481,"typ":2482,"when":2483,"xin":2484,"zero":2485,"Ġ)":2486,"Ġill":2487,"Ġzero":2488,"ink":2489,"ining":2490,"anion":2491,"rel":2492,"ret":2493,"rete":2494,"relevant":2495,"eness":2496,"era":2497,"Ġspecific":2498,"arn":2499,"arch":2500,"edium":2501,"Ġcues":2502,"Ġcaching":2503,"Ġaut":2504,"herent":2505,"Ġmean":2506,"Ġded":2507,"Ġfree":2508,"Ġfuture":2509,"ics":2510,"icated":2511,"ications":2512,"ĠLl":2513,"ecall":2514,"Ġinform":2515,"Ġreg":2516,"Ġrelated":2517,"Ġreducing":2518,"acm":2519,"Ġtheir":2520,"learning":2521,"ĠSong":2522,"ĠSecurity":2523,"ĠServ":2524,"Ġbec":2525,"Ġbert":2526,"Ġbrittle":2527,"ĠISBN":2528,"ange":2529,"lying":2530,"ĠAg":2531,"ided":2532,"identif":2533,"ilun":2534,"ilies":2535,"ĠCan":2536,"urn":2537,"ĠTo":2538,"ĠTom":2539,"ĠTong":2540,"ĠYif":2541,"ĠYong":2542,"ĠYilun":2543,"pert":2544,"Ġhyp":2545,"ular":2546,"Ġconver":2547,"Ġconsistency":2548,"ami":2549,"ĠMachinery":2550,"ĠFa":2551,"ĠFailure":2552,"ĠFei":2553,"ade":2554,"ĠRen":2555,"Ġproduce":2556,"Ġnon":2557,"Ġnew":2558,"Ġstar":2559,"Ġstack":2560,"Ġstyle":2561,"Ġstrength":2562,"Ġgo":2563,"Ġvocabul":2564,"ĠZhen":2565,"ĠBLEU":2566,"ĠGener":2567,"ĠJeff":2568,"ĠJava":2569,"ucin":2570,"ĠData":2571,"Ġpretrained":2572,"Ġalong":2573,"tok":2574,"top":2575,"tool":2576,"allucin":2577,"ttp":2578,"Ġtriage":2579,"ored":2580,"Ġenti":2581,"former":2582,"ĠKang":2583,"tention":2584,"conf":2585,"dicating":2586,"Ġsummarizes":2587,"Ġoperations":2588,"pecial":2589,"ĠShimin":2590,"Prompt":2591,"serve":2592,"Ġscal":2593,"Ġappear":2594,"Ġ33":2595,"Ġsemantics":2596,"Ġpredicted":2597,"Ġ46":2598,"ĠChris":2599,"duced":2600,"Ġshow":2601,"Ġevaluates":2602,"asoning":2603,"Ġquery":2604,"Ġresp":2605,"Ġdiffer":2606,"oundation":2607,"Ġdisc":2608,"Ġweak":2609,"ĠAcc":2610,"Ġcommun":2611,"Ġwhereas":2612,"Ġsurveys":2613,"error":2614,"Ġclassic":2615,"ournal":2616,"Ġaggreg":2617,"Ġencoders":2618,"Ġ979":2619,"othes":2620,"Ġrunbook":2621,"Ġlocation":2622,"Ġlocalization":2623,"Ġadditional":2624,"Ġtools":2625,"Ġincluding":2626,"Ġcoun":2627,"Ġframes":2628,"Ġcorpora":2629,"Ġbenchmarks":2630,"Ġdescrib":2631,"Ġobservability":2632,"Ġerrors":2633,"Ġexplanations":2634,"Ġcombines":2635,"Ġcollabor":2636,"ĠManagement":2637,"merging":2638,"Ġcalls":2639,"Ġfamilies":2640,"Ġverification":2641,"research":2642,"ĠIDs":2643,"offs":2644,"Ġintegration":2645,"Web":2646,"www":2647,"Ġllm":2648,"Ġllms":2649,"Ġprovides":2650,"atives":2651,"Ġassistance":2652,"Ġcontrollability":2653,"Ġdescription":2654,"class":2655,"Ġcategory":2656,"Ġfields":2657,"Ġvalidation":2658,"Parser":2659,"variable":2660,"Ġaugmentation":2661,"Ġambiguous":2662,"Ġlayers":2663,"ĠHowever":2664,"Ġnarratives":2665,"Ġstrategies":2666,"Eval":2667,"zhi":2668,"Ġsession":2669,"Ġchoices":2670,"component":2671,"Ġlikely":2672,"Ġmechanisms":2673,"Ġindustrial":2674,"Ġdemonstrations":2675,"world":2676,"Ġillustr":2677,"%)":2678,"09":2679,"120":2680,"27":2681,"51":2682,"72":2683,"83":2684,"ASE":2685,"CE":2686,"CS":2687,"Cl":2688,"CTRA":2689,"ET":2690,"FT":2691,"Hs":2692,"Ms":2693,"SA":2694,"Sc":2695,"Server":2696,"Turbo":2697,"au":2698,"aud":2699,"ball":2700,"col":2701,"coder":2702,"coun":2703,"eh":2704,"efficient":2705,"fix":2706,"first":2707,"gram":2708,"hui":2709,"kh":2710,"ler":2711,"ling":2712,"lap":2713,"mit":2714,"multi":2715,"match":2716,"miss":2717,"ni":2718,"other":2719,"pattern":2720,"pose":2721,"qing":2722,"rd":2723,"upl":2724,"uild":2725,"writ":2726,"Ġ\"":2727,"Ġ,":2728,"ĠčĊ":2729,"Ġed":2730,"anti":2731,"anth":2732,"ories":2733,"Ġser":2734,"Ġsecond":2735,"arrow":2736,"atement":2737,"Ġpage":2738,"Ġpoint":2739,"Ġpaths":2740,"Ġlow":2741,"Ġlever":2742,"Ġlist":2743,"ogether":2744,"root":2745,"Ġmon":2746,"Ġmem":2747,"Ġmiss":2748,"itect":2749,"Ġdomin":2750,"Ġfinal":2751,"Ġfrag":2752,"entence":2753,"ĠLew":2754,"ĠLiao":2755,"etric":2756,"elf":2757,"Ġinj":2758,"Ġindirectly":2759,"Ġindex":2760,"Ġrel":2761,"Ġreduces":2762,"Ġwas":2763,"Ġout":2764,"Ġeas":2765,"Ġbod":2766,"oding":2767,"aging":2768,"ĠISS":2769,"ĠAb":2770,"ĠAm":2771,"uring":2772,"urvey":2773,"urpose":2774,"igure":2775,"ĠTang":2776,"ĠTable":2777,"ĠTim":2778,"ĠTse":2779,"âĢľ":2780,"100":2781,"106":2782,"1016":2783,"1007":2784,"Ġconn":2785,"Ġconsistent":2786,"ama":2787,"amb":2788,"tering":2789,"ĠMi":2790,"ĠFu":2791,"ĠFull":2792,"ĠFigure":2793,"aditional":2794,"Ġprocessing":2795,"Ġstage":2796,"Ġstabil":2797,"Ġvolume":2798,"exts":2799,"Ġexact":2800,"ĠPei":2801,"ĠGr":2802,"ĠEmpirical":2803,"ĠDuan":2804,"Logs":2805,"Logging":2806,"Ġall":2807,"Ġalerts":2808,"118":2809,"ĠZhuang":2810,"Ġ192":2811,"ighb":2812,"times":2813,"Ġenhan":2814,"Ġgeneral":2815,"ĠKu":2816,"cont":2817,"rections":2818,"ĠShao":2819,"Ġchron":2820,"Ġexplo":2821,"Ġdirection":2822,"Prompting":2823,"Ġcla":2824,"Ġclust":2825,"Ġapproach":2826,"Ġappears":2827,"ĠAnd":2828,"ope":2829,"Ġ47":2830,"ĠYuxin":2831,"agnos":2832,"Ġvariants":2833,"168":2834,"Ġ64":2835,"Ġreporting":2836,"Ġ2019":2837,"abling":2838,"Ġcorrel":2839,"Ġmainly":2840,"Ġhigher":2841,"Ġdistribution":2842,"Ġsemantically":2843,"prompting":2844,"service":2845,"craf":2846,"nowball":2847,"ĠWeibin":2848,"Ġcommonly":2849,"Ġkeyword":2850,"Ġspans":2851,"Ġaddition":2852,"Ġaddress":2853,"Ġconcrete":2854,"Ġneural":2855,"LECTRA":2856,"Ġsmaller":2857,"Ġplac":2858,"eyond":2859,"iques":2860,"Ġevolution":2861,"7503":2862,"ierarch":2863,"Ġrequirements":2864,"models":2865,"rasing":2866,"Ġempirical":2867,"Ġability":2868,"ĠSuch":2869,"Ġversions":2870,"Ġinterpretation":2871,"ĠThunderbirdYes":2872,"Ġyet":2873,"Ġcollection":2874,"Ġoption":2875,"Across":2876,"Ġfocuses":2877,"ĠLuke":2878,"Ġdetectors":2879,"tasks":2880,"Ġapplied":2881,"ĠExpl":2882,"Anomaly":2883,"Stage":2884,"Ġsynt":2885,"Ġwording":2886,"Agent":2887,"Agentic":2888,"etty":2889,"ĠSystems":2890,"ĠAIOps":2891,"ibrary":2892,"including":2893,"empor":2894,"Ġtechniques":2895,"aclanth":2896,"ĠZhihan":2897,"Root":2898,"Ġcapability":2899,"Ġprecision":2900,"Ġsource":2901,"Ġsugges":2902,"Ġprogram":2903,"Ġbackbones":2904,"Ġdocumentation":2905,"Ġconventions":2906,"Ġexemplars":2907,"constrained":2908,"3597503":2909,"criminative":2910,"hancement":2911,"erns":2912,"Ġterms":2913,"Ġpurely":2914,"ĠRAG":2915,"ĠDetection":2916,"Ġshifts":2917,"Ġmeaning":2918,"Ġhypothes":2919,"Ġcollaboration":2920,"Hsun":2921,"ĠLewis":2922,"crafted":2923,"nowballing":2924,"ierarchical":2925,"aclanthology":2926,"121":2927,"33":2928,"3390":2929,"67":2930,"81":2931,"82":2932,"Benchmark":2933,"BLEU":2934,"Ch":2935,"DE":2936,"GD":2937,"Ho":2938,"IG":2939,"IP":2940,"Journal":2941,"LD":2942,"LLaMA":2943,"NLP":2944,"RR":2945,"Rules":2946,"Retrieval":2947,"SO":2948,"Software":2949,"WS":2950,"aj":2951,"but":2952,"bug":2953,"can":2954,"call":2955,"cross":2956,"eve":2957,"egr":2958,"ered":2959,"findings":2960,"gent":2961,"ha":2962,"hong":2963,"hand":2964,"host":2965,"iate":2966,"ls":2967,"lectr":2968,"library":2969,"ming":2970,"mod":2971,"message":2972,"na":2973,"ner":2974,"not":2975,"nlp":2976,"pass":2977,"purpose":2978,"qian":2979,"rank":2980,"sp":2981,"ses":2982,"sion":2983,"urop":2984,"util":2985,"volume":2986,"way":2987,"wise":2988,"Ġ:":2989,"Ġ;":2990,"Ġ36":2991,"Ġ24":2992,"Ġtickets":2993,"into":2994,"instruction":2995,"onal":2996,"real":2997,"rehen":2998,"represent":2999,"refl":3000,"Ġtre":3001,"Ġtail":3002,"Ġtaxonomy":3003,"alone":3004,"Ġsch":3005,"Ġsection":3006,"Ġsusp":3007,"Ġspecial":3008,"arger":3009,"edul":3010,"atab":3011,"Ġcit":3012,"Ġcentr":3013,"Ġpot":3014,"Ġpublic":3015,"Ġam":3016,"Ġaware":3017,"Ġautomatic":3018,"Ġlo":3019,"ising":3020,"Ġmiti":3021,"Ġdigital":3022,"Ġfit":3023,"Ġfail":3024,"ently":3025,"entory":3026,"ict":3027,"icse":3028,"icious":3029,"ĠLevel":3030,"asc":3031,"asures":3032,"Ġinf":3033,"Ġinstr":3034,"Ġread":3035,"Ġrecon":3036,"acle":3037,"Ġeith":3038,"ĠSe":3039,"ĠSi":3040,"ĠSci":3041,"ĠSIG":3042,"Ġlogged":3043,"use":3044,"usion":3045,"ĠApp":3046,"Ġtoo":3047,"Ġtoler":3048,"ilin":3049,"ĠCause":3050,"ĠCui":3051,"emnlp":3052,"ĠYan":3053,"ĠYun":3054,"ĠYork":3055,"ĠYao":3056,"ainst":3057,"108":3058,"ĠMat":3059,"ĠMoh":3060,"ĠFeng":3061,"Ġthus":3062,"chitect":3063,"ada":3064,"adaptation":3065,"old":3066,"ĠRu":3067,"ĠInt":3068,"ĠInstead":3069,"ĠHan":3070,"Ġproactive":3071,"Ġproduction":3072,"Ġnarrow":3073,"Ġstatis":3074,"Ġgap":3075,"Ġgiven":3076,"Ġsufficient":3077,"Ġsuite":3078,"than":3079,"through":3080,"extrac":3081,"Ġexternal":3082,"Ġexception":3083,"Ġ2026":3084,"ĠPrec":3085,"ĠPython":3086,"ĠZero":3087,"ĠZibin":3088,"areful":3089,"ĠGuo":3090,"ĠJared":3091,"quality":3092,"ived":3093,"ĠDu":3094,"ote":3095,"ĠUSA":3096,"Ġpreserve":3097,"115":3098,"119":3099,"ĠNY":3100,"press":3101,"Ġ145":3102,"ĠLogging":3103,"Ġcompact":3104,"iming":3105,"fei":3106,"Ġcontent":3107,"Ġcontinu":3108,"Ġcontexts":3109,"trieve":3110,"Ġenviron":3111,"ĠXi":3112,"Ġgenerating":3113,"Ġgeneralization":3114,"rich":3115,"ĠOverall":3116,"ĠKe":3117,"Ġdef":3118,"ĠConcordia":3119,"Ġadj":3120,"Ġadapt":3121,"364":3122,"Ġits":3123,"Ġexplain":3124,"Ġdirect":3125,"integr":3126,"Ġscreening":3127,"ICWS":3128,"impro":3129,"Ġunderlying":3130,"Ġ31":3131,"Ġ35":3132,"ards":3133,"utputs":3134,"LLMs":3135,"3728":3136,"Ġrecord":3137,"2508":3138,"SEM":3139,"ship":3140,"ĠQwen":3141,"ĠNov":3142,"Ġdecid":3143,"Ġ62":3144,"ĠCheng":3145,"oyer":3146,"Ġmanagement":3147,"ĠVan":3148,"Ġquick":3149,"estamp":3150,"odern":3151,"143":3152,"Ġhead":3153,"Ġhelp":3154,"ense":3155,"Ġdist":3156,"Ġdistributed":3157,"Ġwere":3158,"problem":3159,"International":3160,"Ġoverhead":3161,"Ġconstrained":3162,"Ġconstruction":3163,"Ġkeep":3164,"Ġwindowing":3165,"Ġagents":3166,"Ġagainst":3167,"Ġsupports":3168,"Ġimproves":3169,"Ġspan":3170,"lemoyer":3171,"Ġ188":3172,"Ġconcerns":3173,"require":3174,"Ġsometimes":3175,"generated":3176,"Ġcomparability":3177,"Ġplace":3178,"eyang":3179,"ĠRepresent":3180,"ĠRepresentation":3181,"venue":3182,"vesti":3183,"Ġobserved":3184,"Ġjoint":3185,"Ġlater":3186,"Ġorganized":3187,"ĠPrompt":3188,"mediation":3189,"Ġdiagnostics":3190,"ellig":3191,"ĠJinyang":3192,"Ġdetector":3193,"Engineering":3194,"Encoder":3195,"Ġanomalous":3196,"Ġavoid":3197,"Ġinsp":3198,"Ġvalue":3199,"ARN":3200,"Ġseverity":3201,"Ġpoints":3202,"decoder":3203,"Ġcurrent":3204,"ettlemoyer":3205,"Ġinsertion":3206,"Ġrelying":3207,"Ġtarget":3208,"Ġtargets":3209,"Ġmatters":3210,"8400":3211,"Ġpropag":3212,"Ġstandard":3213,"vances":3214,"Ġtherefore":3215,"ĠSummary":3216,"Ġcondition":3217,"Ġactionable":3218,"Ġvectors":3219,"Ġinconsistent":3220,"Ġrepository":3221,"Ġinformative":3222,"ĠAgentic":3223,"ĠYifan":3224,"ĠGeneration":3225,"topher":3226,"Ġentities":3227,"ĠChristopher":3228,"Ġ9798400":3229,"Ġrunbooks":3230,"Ġcounts":3231,"aude":3232,"Ġbody":3233,"ĠZhuangbin":3234,"Ġexploit":3235,"Ġclaims":3236,"Ġclustering":3237,"Benchmarks":3238,"Hoang":3239,"bugging":3240,"Ġschedul":3241,"Ġcentral":3242,"Ġeither":3243,"ĠApproaches":3244,"Ġscheduling":3245,"025":3246,"136":3247,"123":3248,"300":3249,"41":3250,"50":3251,"66":3252,"630":3253,"90":3254,"91":3255,"95":3256,"97":3257,"=*":3258,"={":3259,"As":3260,"Code":3261,"DA":3262,"Dec":3263,"FSE":3264,"Finally":3265,"Gen":3266,"Gener":3267,"Given":3268,"Hybrid":3269,"ID":3270,"IJ":3271,"IS":3272,"Id":3273,"Jetty":3274,"Level":3275,"OD":3276,"PP":3277,"Pr":3278,"Parsing":3279,"SM":3280,"XX":3281,"be":3282,"ca":3283,"cas":3284,"caus":3285,"cial":3286,"dif":3287,"eek":3288,"fit":3289,"fter":3290,"fri":3291,"focus":3292,"gu":3293,"imar":3294,"iors":3295,"jor":3296,"lps":3297,"lama":3298,"maining":3299,"net":3300,"ob":3301,"oren":3302,"pi":3303,"pars":3304,"pages":3305,"peng":3306,"ry":3307,"sk":3308,"son":3309,"sing":3310,"sof":3311,"sequ":3312,"small":3313,"security":3314,"ton":3315,"ump":3316,"uoc":3317,"ved":3318,"vers":3319,"valu":3320,"words":3321,"zhe":3322,"Â·":3323,"Ġent":3324,"Ġ45":3325,"Ġ26":3326,"Ġera":3327,"inf":3328,"ini":3329,"inary":3330,"indicating":3331,"anation":3332,"onics":3333,"reLog":3334,"tian":3335,"tially":3336,"enabled":3337,"eries":3338,"erge":3339,"erformance":3340,"Ġtest":3341,"Ġtogether":3342,"Ġtempor":3343,"esting":3344,"Ġspl":3345,"Ġsolutions":3346,"arm":3347,"eds":3348,"ater":3349,"atency":3350,"Ġcapt":3351,"Ġcareful":3352,"Ġpers":3353,"Ġposition":3354,"Ġpolic":3355,"Ġaim":3356,"Ġlead":3357,"Ġlink":3358,"Ġlarger":3359,"ogn":3360,"istic":3361,"ists":3362,"rouping":3363,"hel":3364,"hema":3365,"Ġmap":3366,"Ġmicro":3367,"Ġmuch":3368,"itoring":3369,"Ġder":3370,"Ġdel":3371,"Ġdatab":3372,"Ġfac":3373,"Ġfoundation":3374,"ĠLing":3375,"ĠLMs":3376,"eth":3377,"etch":3378,"elow":3379,"elines":3380,"mpro":3381,"assis":3382,"eck":3383,"stage":3384,"statement":3385,"Ġinst":3386,"Ġiniti":3387,"Ġinternal":3388,"Ġinvesti":3389,"Ġrewrit":3390,"Ġremediation":3391,"Ġremaining":3392,"actic":3393,"across":3394,"actical":3395,"Ġemit":3396,"lements":3397,"ĠSw":3398,"ĠSub":3399,"ĠSimil":3400,"ĠScal":3401,"ĠSentence":3402,"ĠSelf":3403,"Ġbest":3404,"Ġbene":3405,"Ġblock":3406,"Ġbudg":3407,"Ġbuild":3408,"207":3409,"unc":3410,"aged":3411,"agentic":3412,"ĠAlex":3413,"utting":3414,"Ġtop":3415,"ili":3416,"ĠCor":3417,"ĠCar":3418,"ĠCai":3419,"ĠComm":3420,"try":3421,"tructure":3422,"trast":3423,"ember":3424,"ĠTemplate":3425,"2021":3426,"2022":3427,"103":3428,"Ġhorizon":3429,"Ġhallucin":3430,"Ġforms":3431,"ulation":3432,"aman":3433,"ĠMe":3434,"ĠMain":3435,"ĠMost":3436,"ĠMay":3437,"ĠMetric":3438,"ĠFl":3439,"ĠFinally":3440,"Ġthree":3441,"Ġthreat":3442,"evaluation":3443,"ineering":3444,"Ġord":3445,"adata":3446,"ifeng":3447,"ĠRI":3448,"ĠRecall":3449,"ĠInc":3450,"ĠIns":3451,"ĠInComp":3452,"ĠHa":3453,"ĠHigh":3454,"ĠHeng":3455,"Ġproto":3456,"Ġproducing":3457,"Ġnorm":3458,"Ġnames":3459,"Ġstability":3460,"Ġsteps":3461,"Ġvis":3462,"that":3463,"Ġexten":3464,"Ġexpress":3465,"ĠZi":3466,"ĠZettlemoyer":3467,"izations":3468,"ĠBy":3469,"ĠBig":3470,"ĠBoth":3471,"ĠEd":3472,"ĠEff":3473,"plan":3474,"unding":3475,"ĠDen":3476,"ĠUser":3477,"Ġprev":3478,"Ġprefix":3479,"ĠWh":3480,"ĠWARN":3481,"Ġrig":3482,"Ġrich":3483,"Ġrule":3484,"ĠNar":3485,"ĠNatural":3486,"osing":3487,"oses":3488,"prediction":3489,"Ġ162":3490,"ĠLogB":3491,"allel":3492,"allenges":3493,"Ġdeter":3494,"Ġcompress":3495,"ores":3496,"logger":3497,"uming":3498,"Ġmetadata":3499,"Ġenabling":3500,"Ġbeing":3501,"Ġgeneric":3502,"Ġgenerators":3503,"format":3504,"ĠOr":3505,"ĠKim":3506,"ĠKuang":3507,"ĠKnowledge":3508,"Ġprimar":3509,"configur":3510,"Ġdeep":3511,"Ġdebugging":3512,"engineering":3513,"Ġsummarized":3514,"Ġoperate":3515,"ĠShan":3516,"213":3517,"Ġdirections":3518,"Ġpart":3519,"Ġscope":3520,"Ġclos":3521,"imple":3522,"150":3523,"155":3524,"156":3525,"159":3526,"Ġgrow":3527,"herefore":3528,"195":3529,"198":3530,"199":3531,"ipelines":3532,"ĠQing":3533,"Ġarchitect":3534,"akes":3535,"Ġshort":3536,"agnosis":3537,"Ġvariation":3538,"Ġvariability":3539,"166":3540,"Ġdecoder":3541,"Ġdecide":3542,"Ġdecoding":3543,"Ġreports":3544,"uality":3545,"riel":3546,"Ġmaintain":3547,"Ġresolutions":3548,"Ġresults":3549,"ixing":3550,"003":3551,"146":3552,"Ġheav":3553,"Ġhelps":3554,"prompt":3555,"everal":3556,"080":3557,"088":3558,"services":3559,"Instruct":3560,"Ġpersistent":3561,"ĠRober":3562,"ĠXue":3563,"ĠXuan":3564,"ĠWeb":3565,"ĠComputer":3566,"Ġ70":3567,"Ġ79":3568,"while":3569,"Ġobj":3570,"Ġencode":3571,"Ġcosts":3572,"Ġreliance":3573,"Ġreliably":3574,"Ġimproving":3575,"Ġtransl":3576,"endly":3577,"Ġsparse":3578,"Ġrequest":3579,"operator":3580,"Ġ214":3581,"Ġconcentr":3582,"ublish":3583,"Ġincluded":3584,"general":3585,"generation":3586,"ields":3587,"Ġ83":3588,"Ġanalyses":3589,"ataset":3590,"Ġplaus":3591,"Ġidentify":3592,"Ġidentified":3593,"Ġrefresh":3594,"Ġevolve":3595,"Ġlimitations":3596,"Ġmajor":3597,"ollowing":3598,"Ġrequires":3599,"rash":3600,"Ġeffective":3601,"Ġeffectiv":3602,"ĠStage":3603,"ĠAdaptive":3604,"ĠMethodology":3605,"Ġnormalized":3606,"Ġabstr":3607,"Ġreusable":3608,"Ġinterpretable":3609,"Ġinterpretability":3610,"ĠThunderbirdNo":3611,"Ġintent":3612,"Ġbackward":3613,"ĠProceedings":3614,"Ġchange":3615,"mediate":3616,"ĠMinghua":3617,"ĠuserId":3618,"Conference":3619,"Context":3620,"Ġfollowing":3621,"ĠPrediction":3622,"depend":3623,"ropy":3624,"Ġhandcrafted":3625,"ĠDef":3626,"Ġneeds":3627,"atively":3628,"grouping":3629,"Ġdataset":3630,"Ġinventory":3631,"Ġvenue":3632,"Ġassistants":3633,"Ġcandidates":3634,"cordingly":3635,"decision":3636,"windows":3637,"Ġ116":3638,"Ġtreats":3639,"Ġcurated":3640,"Ġmodes":3641,"Ġdescriptions":3642,"Ġemphasize":3643,"Ġemphasizes":3644,"Ġtechnical":3645,"Ġfield":3646,"Ġcorrectness":3647,"Ġfrequently":3648,"Ġsymptoms":3649,"Ġseparate":3650,"Ġfiltering":3651,"Ġinputs":3652,"lemented":3653,"Ġrisks":3654,"Ġscores":3655,"Ġhighlight":3656,"Ġupdates":3657,"Ġintroduces":3658,"iously":3659,"Ġtitle":3660,"Ġtimestamp":3661,"titioners":3662,"Ġclear":3663,"Ġphrasing":3664,"Ġmasked":3665,"Ġstandalone":3666,"Ġguard":3667,"thought":3668,"Ġchains":3669,"Ġreflecting":3670,"Ġgraphs":3671,"Ġmotivating":3672,"embedding":3673,"checking":3674,"move":3675,"runtime":3676,"Ġflagship":3677,"ĠMark":3678,"Ġfaithfulness":3679,"Tool":3680,"Trans":3681,"Ġservices":3682,"ĠShenglin":3683,"Ġpractices":3684,"load":3685,"type":3686,"Ġdedupl":3687,"Ġbecome":3688,"ĠCanada":3689,"ĠYongqian":3690,"ĠFault":3691,"Ġstarted":3692,"Ġgoal":3693,"Ġdiscuss":3694,"Ġcommunity":3695,"Ġillustrates":3696,"Score":3697,"grams":3698,"nipp":3699,"patterns":3700,"Ġedit":3701,"Ġserve":3702,"Ġmonitoring":3703,"Ġmemory":3704,"ĠISSN":3705,"Ġstabilize":3706,"ĠKumar":3707,"Ġchronological":3708,"Ġoptionally":3709,"ĠExploring":3710,"hosted":3711,"lsen":3712,"uropean":3713,"ĠMoham":3714,"Ġstatistics":3715,"ĠNovember":3716,"Ġquickly":3717,"elligence":3718,"IJC":3719,"friendly":3720,"assisted":3721,"ĠSimilarly":3722,"ĠInCompanion":3723,"Ġprotocol":3724,"Ġcompression":3725,"-/":3726,"125":3727,"135":3728,"139":3729,"56":3730,"562":3731,"642":3732,"78":3733,"87":3734,"98":3735,"Augmented":3736,"CI":3737,"Chen":3738,"De":3739,"Di":3740,"Dis":3741,"DPP":3742,"EM":3743,"Er":3744,"EOR":3745,"ELECTRA":3746,"HPC":3747,"Http":3748,"INFO":3749,"LO":3750,"Llama":3751,"Man":3752,"Medium":3753,"NN":3754,"NCE":3755,"Outputs":3756,"PD":3757,"Ps":3758,"Sv":3759,"Sem":3760,"SMA":3761,"SPE":3762,"TD":3763,"WL":3764,"ae":3765,"aol":3766,"ake":3767,"bu":3768,"bel":3769,"because":3770,"between":3771,"cs":3772,"cle":3773,"cutting":3774,"des":3775,"del":3776,"dle":3777,"doc":3778,"domain":3779,"dpi":3780,"dater":3781,"ea":3782,"fa":3783,"following":3784,"gan":3785,"gest":3786,"hib":3787,"horizon":3788,"http":3789,"hold":3790,"iol":3791,"iable":3792,"itiv":3793,"jiel":3794,"ks":3795,"kin":3796,"kai":3797,"latency":3798,"me":3799,"mad":3800,"mei":3801,"micro":3802,"mdpi":3803,"ny":3804,"nual":3805,"natural":3806,"post":3807,"pipelines":3808,"raw":3809,"rases":3810,"rails":3811,"su":3812,"sum":3813,"side":3814,"ski":3815,"tual":3816,"ux":3817,"ups":3818,"vÃ¡":3819,"xiao":3820,"ys":3821,"yan":3822,"yber":3823,"zi":3824,"zhen":3825,"zami":3826,"{}":3827,"Ã©":3828,"âĪ":3829,"âŁ":3830,"Ġ{":3831,"Ġim":3832,"Ġest":3833,"Ġimpl":3834,"Ġutil":3835,"ination":3836,"instr":3837,"ani":3838,"anu":3839,"online":3840,"onse":3841,"remain":3842,"reasoning":3843,"ention":3844,"erg":3845,"eri":3846,"erification":3847,"ali":3848,"orth":3849,"Ġsit":3850,"Ġsampl":3851,"Ġsimpl":3852,"Ġsnowballing":3853,"Ġanother":3854,"art":3855,"ately":3856,"attention":3857,"Ġcal":3858,"Ġcod":3859,"Ġcase":3860,"Ġcarr":3861,"Ġcrash":3862,"Ġpus":3863,"Ġpost":3864,"Ġpair":3865,"Ġpublish":3866,"Ġaver":3867,"Ġaff":3868,"Ġafter":3869,"Ġlab":3870,"ogonal":3871,"istr":3872,"istics":3873,"roll":3874,"Ġmix":3875,"Ġmining":3876,"Ġmade":3877,"Ġdivers":3878,"Ġfile":3879,"Ġfals":3880,"Ġfast":3881,"Ġflex":3882,"icial":3883,"ĠLoc":3884,"ĠLei":3885,"eting":3886,"eline":3887,"ste":3888,"stable":3889,"Ġindic":3890,"Ġinherent":3891,"Ġred":3892,"Ġrest":3893,"Ġrepl":3894,"Ġrevis":3895,"Ġreference":3896,"Ġresource":3897,"Ġreduced":3898,"Ġway":3899,"Ġoc":3900,"Ġoth":3901,"acent":3902,"lead":3903,"ĠSar":3904,"ĠSam":3905,"ĠSome":3906,"ĠServer":3907,"Ġbur":3908,"204":3909,"206":3910,"209":3911,"using":3912,"ustif":3913,"abi":3914,"ĠAp":3915,"uth":3916,"uting":3917,"idel":3918,"idong":3919,"iddle":3920,"ĠCo":3921,"ĠCao":3922,"uru":3923,"urning":3924,"ĠTB":3925,"ĠTing":3926,"ĠTop":3927,"ĠTest":3928,"ĠTie":3929,"ĠTesting":3930,"âĢ¢":3931,"ĠYin":3932,"101":3933,"102":3934,"109":3935,"1077":3936,"Ġhost":3937,"Ġhierarchical":3938,"Ġcontribut":3939,"termin":3940,"ĠMc":3941,"ĠMin":3942,"ĠMari":3943,"ĠMish":3944,"ĠMik":3945,"ĠMedium":3946,"ĠFew":3947,"ĠFrom":3948,"ĠFile":3949,"ĠFSE":3950,"ĠFast":3951,"ĠFung":3952,"events":3953,"eview":3954,"Ġorth":3955,"Ġoracle":3956,"chang":3957,"cheng":3958,"change":3959,"add":3960,"olas":3961,"olds":3962,"ifies":3963,"ifiable":3964,"ĠRes":3965,"ĠRong":3966,"ĠRui":3967,"ĠHadoop":3968,"Ġproduces":3969,"Ġnext":3970,"Ġname":3971,"Ġexisting":3972,"Ġexhib":3973,"ĠPat":3974,"ĠPTA":3975,"ĠPerformance":3976,"ĠPEr":3977,"ĠZeyang":3978,"ĠBog":3979,"ĠBav":3980,"ĠBase":3981,"Ġisol":3982,"ĠGao":3983,"ĠGuan":3984,"ĠJos":3985,"ĠJason":3986,"ĠJie":3987,"ĠJoint":3988,"ĠEr":3989,"ĠEric":3990,"ĠEfficient":3991,"ĠERR":3992,"ĠElectr":3993,"ĠEuropean":3994,"ĠDB":3995,"ĠDis":3996,"ĠDem":3997,"LogS":3998,"LogRe":3999,"LogAD":4000,"LogEval":4001,"ands":4002,"Ġusage":4003,"Ġrange":4004,"ĠNaman":4005,"udit":4006,"Ġ15":4007,"Ġ120":4008,"Ġ126":4009,"Ġ194":4010,"ĠLogEval":4011,"ighted":4012,"Ġcomprehen":4013,"Ġcomplements":4014,"Ġtrace":4015,"ferences":4016,"ĠLiang":4017,"ĠLipeng":4018,"Ġengine":4019,"Ġenough":4020,"Ġenrich":4021,"Ġgenerative":4022,"ugg":4023,"Ġacc":4024,"Ġactions":4025,"Ġincor":4026,"ĠOl":4027,"key":4028,"consum":4029,"recall":4030,"ĠContext":4031,"puts":4032,"Ġstrict":4033,"ĠSha":4034,"ĠShar":4035,"ĠShang":4036,"212":4037,"216":4038,"218":4039,"Ġchat":4040,"363":4041,"369":4042,"3626":4043,"3696":4044,"industr":4045,"Ġpartially":4046,"Ġparallel":4047,"Ġworkload":4048,"mbolic":4049,"ĠEnd":4050,"Ġclar":4051,"ICPC":4052,"ICDE":4053,"encies":4054,"liam":4055,"Ġunconstrained":4056,"Ġunstable":4057,"151":4058,"Ġ32":4059,"Ġ38":4060,"Ġ39":4061,"track":4062,"Ġpredicting":4063,"assive":4064,"Ġgroup":4065,"194":4066,"376":4067,"377":4068,"3749":4069,"3755":4070,"3746":4071,"full":4072,"Ġrecogn":4073,"252":4074,"258":4075,"ĠChao":4076,"ĠYue":4077,"yuan":4078,"ĠQuoc":4079,"ĠQuality":4080,"Ġcodebase":4081,"bounded":4082,"169":4083,"Ġattribution":4084,"Ġevaluations":4085,"oyal":4086,"Ġrepro":4087,"Ġrepair":4088,"asoner":4089,"ĠCompared":4090,"173":4091,"ĠVari":4092,"oupl":4093,"Ġqueries":4094,"Ġselecting":4095}