#version: 0.2
i n
a n
o n
č Ċ
r e
t i
e n
e r
in g
Ġ t
a l
o r
e s
Ġ s
Ġ an
ti on
a r
e d
a t
Ġ c
Ġ p
Ġ a
Ġ l
Ġan d
o g
i s
r o
h e
Ġ m
i t
Ġ d
Ġ f
a tion
en t
i c
Ġ L
e t
e l
m p
a s
e c
s t
Ġ in
Ġ re
Ġ w
Ġ o
a c
Ġ e
Ġt he
l e
Ġ S
Ġl og
Ġ b
o d
2 0
c e
u n
u s
a b
Ġ [
a g
Ġ (
Ġ I
an g
l y
Ġ A
u t
o m
Ġt o
i d
i l
Ġ C
u r
t r
e m
i g
Ġ T
Ġo f
â Ģ
Ġ Y
a in
20 2
1 0
p er
Ġ on
L M
o w
al y
Ġ h
Ġf or
u l
Ġc on
a m
t er
v e
Ġ M
Ġ F
Ġt h
e v
in e
Ġ or
c h
a d
it h
o l
i f
ti c
it y
Ġ R
ĠI n
Ġ H
u re
Ġp ro
o mp
Ġ n
Ġs t
Ġ g
ĠL LM
Ġ v
Ġs u
t h
s is
Ġe v
e x
Ġe x
Ġ 202
Ġ P
Ġ Z
od el
ag e
i z
Ġ B
Ġw ith
ar s
t s
s s
a re
Ġ is
at e
Ġ G
Ġ J
t ing
Ġ E
q u
on g
p l
es s
Ġm odel
un d
i v
) ,
u c
ec tion
h en
Ġ D
as ed
mp l
L og
o t
er s
a p
Ġ U
Ġp re
an d
Ġa s
] .
o f
Ġ W
ex t
Ġ us
Ġ r
E E
Ġ al
st r
1 1
m ar
m ent
re n
ab le
Ġa re
b ased
en er
Ġ N
as k
ĠZ h
p s
ti ve
t o
i es
ter n
u d
a il
o s
p re
aly sis
Ġ 1
en ce
or m
ĠL og
o c
e mpl
al l
Ġp ars
ation al
Ġd et
ig h
i a
Ġc omp
i m
i r
u p
om aly
f e
g ing
âĢ ĵ
t t
g e
Ġlog s
Ġcon t
v er
Ġth at
Ġt r
e ar
o i
at ed
Ġw h
i on
tr i
o re
w are
fe ren
l og
or k
ĠL i
u m
ro ss
/ /
ti m
tt ps
at es
R L
a us
Ġm et
e w
Ġ en
Ġ X
Ġ 10
ang u
y st
Ġt ask
Ġb e
Ġg ener
angu age
il ity
Ġdet ection
yst em
. ,
p p
ation s
: //
al ly
u g
or g
Ġa c
Ġin c
ac h
of t
f f
o st
r ic
ĠY es
ĠU RL
f orm
Ġ O
v is
ing s
ent s
Ġ K
Ġt empl
Ġan omaly
Ġh ttps
ag es
ec t
feren ce
P T
Ġp r
Ġ202 5
Ġpars ing
k e
t en
per vis
c on
Ġan alysis
Ġd e
re c
er ing
und er
oft ware
ĠT h
Ġpro mp
Ġmodel s
h od
Ġb y
a y
i p
or t
ro m
en g
ig n
tri ev
4 5
ab ility
ĠC on
d ic
Ġ âĢ
ar i
Ġlog ging
od e
iz ation
al u
id ence
Ġsu m
a o
pervis ed
Ġsum mar
an ce
Ġc an
p ut
aus e
Ġs tr
Ġl anguage
ail ure
a per
s ent
Ġa d
Ġo per
p ec
Ġs ystem
ar ge
Ġd oi
EE E
g ine
Ġf rom
ic h
E R
i tion
l ine
ĠS h
uc t
2 1
or d
Ġc h
3 6
Ġ it
Ġre triev
Ġex pl
pre sent
p en
u pervised
âĢ Ŀ
Ġd i
gine ering
l ow
in d
Ġcont ext
P ro
Ġp ar
Ġw ork
tim e
i le
n ing
s er
ĠLLM s
tern ational
ĠâĢ ľ
i b
ain ing
ER T
m b
t ed
if ic
ĠZh ang
) .
y p
an s
Ġev idence
Ġ et
in t
tion s
ĠE n
a v
Ġs c
Ġc l
I C
o us
en c
Ġb ut
ĠIn ternational
Ġl arge
ic al
em ent
i mp
l i
u st
Ġ .
Ġ un
Ġ under
in es
ti f
Ġc om
Ġa pp
ĠS oftware
ĠA n
ĠG PT
1 5
C M
Ġ 3
Ġs em
tr ac
Ġgener ation
1 8
e i
ar d
ĠI EEE
ut put
tic s
Ġpre dic
L LM
s o
re am
or s
Ġp ages
ĠCon ference
a tive
o p
as s
ul ti
Ġg ro
Ġ202 4
11 45
Ġ ro
at tern
he re
ab el
ev el
uct ure
1 9
3 7
f ul
l l
Ġre c
Ġst ud
Ġmet hod
Ġac ross
2 5
S E
e qu
i ent
s h
Ġ 4
ed d
ed ings
Ġd es
le v
ce edings
ĠC h
ip el
d uc
at a
el y
ĠY u
ric s
C A
y u
Ġ Q
Ġ ar
an t
Ġc ode
Ġp aper
ac k
Ġpr ac
a k
b o
Ġs h
ag n
Ġv ari
ĠN o
Ġtask s
rec t
1 6
Ġ at
Ġd ec
Ġo utput
Ġev alu
Ġretriev al
i i
i an
Ġ +
Ġ 6
ar y
Ġthe y
ĠC hen
Ġn ot
Ġus ing
ear ch
Pro ceedings
o y
Ġ /
Ġ imp
an tic
Ġp attern
Ġp ipel
Ġm an
Ġf ailure
Ġre p
Ġtempl ates
m s
u al
th er
X iv
e p
h an
x iv
Ġ 20
Ġs ur
ar xiv
Ġl ear
ro ach
Ġm ess
as on
Ġre present
ab l
ab s
ĠI C
ĠC omp
Ġof ten
igh t
Ġwh ile
Ġtempl ate
ind ow
ĠEn gineering
1 7
r i
u tion
Ġ V
en ch
es e
Ġc or
Ġm ain
Ġin to
ow n
if t
Ġus e
Ġinc id
o u
t ext
Ġ qu
es t
Ġs el
Ġl abel
Ġre s
Ġw hen
ain ed
ĠLi u
i x
o ver
Ġm ulti
Ġd if
Ġin ter
ac y
Ġe mb
ĠS upervised
0 0
2 3
a w
r am
ti v
al ity
Ġs et
at ure
st ream
od er
ut om
ul t
Ġsu ch
ug h
ĠTh is
pec ific
1 4
G L
o und
Ġ he
en s
Ġt yp
Ġh igh
ve y
Ġth is
ĠB GL
d u
d oi
t un
at ing
Ġd r
am et
iz e
ff ic
Ġpromp t
Ġstr ucture
2 4
Ġd is
Ġw e
ĠA c
ĠT he
ĠIn Proceedings
Ġwh ich
Ġmet rics
ug ment
Ġcom m
Ġsem antic
Ġpaper s
3 5
b er
l ud
n ess
p ro
u ang
Ġm ay
ac e
om e
ev er
Ġev ent
Ġdi agn
t e
Ġ -
Ġst at
enc y
Ġemb edd
0 8
c ur
e ad
i e
i ew
m ain
is ion
Ġw here
ĠY ang
ĠH e
ĠU n
mar k
ia o
ser v
roach es
ench mark
own stream
D F
I n
c r
c ess
f er
f low
n ow
Ġ id
Ġo ver
ur al
Ġon ly
Ġcon str
ol og
Ġsummar ization
pen d
Ġdr ift
3 9
a i
a tic
Ġ ke
at h
Ġp er
ic it
202 5
ĠW ang
Ġcomp on
Ġpromp ting
Ġoper ational
Ġsystem s
Ġstud ies
ĠIC L
1 2
T A
s pecific
t he
y le
al e
et s
ĠR o
pl oy
ĠX u
Ġsur vey
DF S
1 10
A CM
i ed
Ġt ext
is t
et w
mp t
tr aining
Ġal so
lev el
Ġoutput s
Ġlear ning
Ġincid ent
utom ated
p r
Ġ time
er r
Ġc ause
Ġm ost
as e
ĠR CA
sis t
iz ed
ĠB ERT
ap t
ĠW e
Ġde ploy
equ ence
ĠComp ut
B ERT
Ġ 7
at or
et hod
Ġw indow
am e
ĠH DFS
Ġcl ass
Ġpredic tion
Ġdes ign
g r
i ation
o ur
w h
re e
en tif
Ġf e
st ead
Ġre ason
ac t
id e
Ġpro v
ĠJ i
Ġcont ro
i al
p le
Ġa g
Ġm ore
Ġd ata
Ġo b
ĠT r
Ġ202 3
hen g
up ing
Ġen c
ĠO n
con text
Ġexpl icit
Ġapp roaches
Ġman y
2 6
