{"<|endoftext|>":0,"!":1,"\"":2,"#":3,"$":4,"%":5,"&":6,"'":7,"(":8,")":9,"*":10,"+":11,",":12,"-":13,".":14,"/":15,"0":16,"1":17,"2":18,"3":19,"4":20,"5":21,"6":22,"7":23,"8":24,"9":25,":":26,";":27,"<":28,"=":29,">":30,"?":31,"@":32,"A":33,"B":34,"C":35,"D":36,"E":37,"F":38,"G":39,"H":40,"I":41,"J":42,"K":43,"L":44,"M":45,"N":46,"O":47,"P":48,"Q":49,"R":50,"S":51,"T":52,"U":53,"V":54,"W":55,"X":56,"Y":57,"Z":58,"[":59,"\\":60,"]":61,"^":62,"_":63,"`":64,"a":65,"b":66,"c":67,"d":68,"e":69,"f":70,"g":71,"h":72,"i":73,"j":74,"k":75,"l":76,"m":77,"n":78,"o":79,"p":80,"q":81,"r":82,"s":83,"t":84,"u":85,"v":86,"w":87,"x":88,"y":89,"z":90,"{":91,"|":92,"}":93,"~":94,"¡":95,"¢":96,"£":97,"¤":98,"¥":99,"¦":100,"§":101,"¨":102,"©":103,"ª":104,"«":105,"¬":106,"®":107,"¯":108,"°":109,"±":110,"²":111,"³":112,"´":113,"µ":114,"¶":115,"·":116,"¸":117,"¹":118,"º":119,"»":120,"¼":121,"½":122,"¾":123,"¿":124,"À":125,"Á":126,"Â":127,"Ã":128,"Ä":129,"Å":130,"Æ":131,"Ç":132,"È":133,"É":134,"Ê":135,"Ë":136,"Ì":137,"Í":138,"Î":139,"Ï":140,"Ð":141,"Ñ":142,"Ò":143,"Ó":144,"Ô":145,"Õ":146,"Ö":147,"×":148,"Ø":149,"Ù":150,"Ú":151,"Û":152,"Ü":153,"Ý":154,"Þ":155,"ß":156,"à":157,"á":158,"â":159,"ã":160,"ä":161,"å":162,"æ":163,"ç":164,"è":165,"é":166,"ê":167,"ë":168,"ì":169,"í":170,"î":171,"ï":172,"ð":173,"ñ":174,"ò":175,"ó":176,"ô":177,"õ":178,"ö":179,"÷":180,"ø":181,"ù":182,"ú":183,"û":184,"ü":185,"ý":186,"þ":187,"ÿ":188,"Ā":189,"ā":190,"Ă":191,"ă":192,"Ą":193,"ą":194,"Ć":195,"ć":196,"Ĉ":197,"ĉ":198,"Ċ":199,"ċ":200,"Č":201,"č":202,"Ď":203,"ď":204,"Đ":205,"đ":206,"Ē":207,"ē":208,"Ĕ":209,"ĕ":210,"Ė":211,"ė":212,"Ę":213,"ę":214,"Ě":215,"ě":216,"Ĝ":217,"ĝ":218,"Ğ":219,"ğ":220,"Ġ":221,"ġ":222,"Ģ":223,"ģ":224,"Ĥ":225,"ĥ":226,"Ħ":227,"ħ":228,"Ĩ":229,"ĩ":230,"Ī":231,"ī":232,"Ĭ":233,"ĭ":234,"Į":235,"į":236,"İ":237,"ı":238,"Ĳ":239,"ĳ":240,"Ĵ":241,"ĵ":242,"Ķ":243,"ķ":244,"ĸ":245,"Ĺ":246,"ĺ":247,"Ļ":248,"ļ":249,"Ľ":250,"ľ":251,"Ŀ":252,"ŀ":253,"Ł":254,"ł":255,"Ń":256,"in":257,"an":258,"on":259,"čĊ":260,"re":261,"ti":262,"en":263,"er":264,"ing":265,"Ġt":266,"al":267,"or":268,"es":269,"Ġs":270,"Ġan":271,"tion":272,"ar":273,"ed":274,"at":275,"Ġc":276,"Ġp":277,"Ġa":278,"Ġl":279,"Ġand":280,"og":281,"is":282,"ro":283,"he":284,"Ġm":285,"it":286,"Ġd":287,"Ġf":288,"ation":289,"ent":290,"ic":291,"ĠL":292,"et":293,"el":294,"mp":295,"as":296,"ec":297,"st":298,"Ġin":299,"Ġre":300,"Ġw":301,"Ġo":302,"ac":303,"Ġe":304,"Ġthe":305,"le":306,"ĠS":307,"Ġlog":308,"Ġb":309,"od":310,"20":311,"ce":312,"un":313,"us":314,"ab":315,"Ġ[":316,"ag":317,"Ġ(":318,"ĠI":319,"ang":320,"ly":321,"ĠA":322,"ut":323,"om":324,"Ġto":325,"id":326,"il":327,"ĠC":328,"ur":329,"tr":330,"em":331,"ig":332,"ĠT":333,"Ġof":334,"âĢ":335,"ĠY":336,"ain":337,"202":338,"10":339,"per":340,"Ġon":341,"LM":342,"ow":343,"aly":344,"Ġh":345,"Ġfor":346,"ul":347,"Ġcon":348,"am":349,"ter":350,"ve":351,"ĠM":352,"ĠF":353,"Ġth":354,"ev":355,"ine":356,"Ġor":357,"ch":358,"ad":359,"ith":360,"ol":361,"if":362,"tic":363,"ity":364,"ĠR":365,"ĠIn":366,"ĠH":367,"ure":368,"Ġpro":369,"omp":370,"Ġn":371,"Ġst":372,"Ġg":373,"ĠLLM":374,"Ġv":375,"Ġsu":376,"th":377,"sis":378,"Ġev":379,"ex":380,"Ġex":381,"Ġ202":382,"ĠP":383,"ĠZ":384,"odel":385,"age":386,"iz":387,"ĠB":388,"Ġwith":389,"ars":390,"ts":391,"ss":392,"are":393,"Ġis":394,"ate":395,"ĠG":396,"ĠJ":397,"ting":398,"ĠE":399,"qu":400,"ong":401,"pl":402,"ess":403,"Ġmodel":404,"und":405,"iv":406,"),":407,"uc":408,"ection":409,"hen":410,"ĠD":411,"ased":412,"mpl":413,"Log":414,"ot":415,"ers":416,"ap":417,"ĠU":418,"Ġpre":419,"and":420,"Ġas":421,"].":422,"of":423,"ĠW":424,"ext":425,"Ġus":426,"Ġr":427,"EE":428,"Ġal":429,"str":430,"11":431,"mar":432,"ment":433,"ren":434,"able":435,"Ġare":436,"based":437,"ener":438,"ĠN":439,"ask":440,"ĠZh":441,"ps":442,"tive":443,"to":444,"ies":445,"tern":446,"ud":447,"ail":448,"os":449,"pre":450,"alysis":451,"Ġ1":452,"ence":453,"orm":454,"ĠLog":455,"oc":456,"empl":457,"all":458,"Ġpars":459,"ational":460,"Ġdet":461,"igh":462,"ia":463,"Ġcomp":464,"im":465,"ir":466,"up":467,"omaly":468,"fe":469,"ging":470,"âĢĵ":471,"tt":472,"ge":473,"Ġlogs":474,"Ġcont":475,"ver":476,"Ġthat":477,"Ġtr":478,"ear":479,"oi":480,"ated":481,"Ġwh":482,"ion":483,"tri":484,"ore":485,"ware":486,"feren":487,"log":488,"ork":489,"ĠLi":490,"um":491,"ross":492,"//":493,"tim":494,"ttps":495,"ates":496,"RL":497,"aus":498,"Ġmet":499,"ew":500,"Ġen":501,"ĠX":502,"Ġ10":503,"angu":504,"yst":505,"Ġtask":506,"Ġbe":507,"Ġgener":508,"anguage":509,"ility":510,"Ġdetection":511,"ystem":512,".,":513,"pp":514,"ations":515,"://":516,"ally":517,"ug":518,"org":519,"Ġac":520,"Ġinc":521,"ach":522,"oft":523,"ff":524,"ost":525,"ric":526,"ĠYes":527,"ĠURL":528,"form":529,"ĠO":530,"vis":531,"ings":532,"ents":533,"ĠK":534,"Ġtempl":535,"Ġanomaly":536,"Ġhttps":537,"ages":538,"ect":539,"ference":540,"PT":541,"Ġpr":542,"Ġ2025":543,"Ġparsing":544,"ke":545,"ten":546,"pervis":547,"con":548,"Ġanalysis":549,"Ġde":550,"rec":551,"ering":552,"under":553,"oftware":554,"ĠTh":555,"Ġpromp":556,"Ġmodels":557,"hod":558,"Ġby":559,"ay":560,"ip":561,"ort":562,"rom":563,"eng":564,"ign":565,"triev":566,"45":567,"ability":568,"ĠCon":569,"dic":570,"ĠâĢ":571,"ari":572,"Ġlogging":573,"ode":574,"ization":575,"alu":576,"idence":577,"Ġsum":578,"ao":579,"pervised":580,"Ġsummar":581,"ance":582,"Ġcan":583,"put":584,"ause":585,"Ġstr":586,"Ġlanguage":587,"ailure":588,"aper":589,"sent":590,"Ġad":591,"Ġoper":592,"pec":593,"Ġsystem":594,"arge":595,"Ġdoi":596,"EEE":597,"gine":598,"Ġfrom":599,"ich":600,"ER":601,"ition":602,"line":603,"ĠSh":604,"uct":605,"21":606,"ord":607,"Ġch":608,"36":609,"Ġit":610,"Ġretriev":611,"Ġexpl":612,"present":613,"pen":614,"upervised":615,"âĢĿ":616,"Ġdi":617,"gineering":618,"low":619,"ind":620,"Ġcontext":621,"Pro":622,"Ġpar":623,"Ġwork":624,"time":625,"ile":626,"ning":627,"ser":628,"ĠLLMs":629,"ternational":630,"ĠâĢľ":631,"ib":632,"aining":633,"ERT":634,"mb":635,"ted":636,"ific":637,"ĠZhang":638,").":639,"yp":640,"ans":641,"Ġevidence":642,"Ġet":643,"int":644,"tions":645,"ĠEn":646,"av":647,"Ġsc":648,"Ġcl":649,"IC":650,"ous":651,"enc":652,"Ġbut":653,"ĠInternational":654,"Ġlarge":655,"ical":656,"ement":657,"imp":658,"li":659,"ust":660,"Ġ.":661,"Ġun":662,"Ġunder":663,"ines":664,"tif":665,"Ġcom":666,"Ġapp":667,"ĠSoftware":668,"ĠAn":669,"ĠGPT":670,"15":671,"CM":672,"Ġ3":673,"Ġsem":674,"trac":675,"Ġgeneration":676,"18":677,"ei":678,"ard":679,"ĠIEEE":680,"utput":681,"tics":682,"Ġpredic":683,"LLM":684,"so":685,"ream":686,"ors":687,"Ġpages":688,"ĠConference":689,"ative":690,"op":691,"ass":692,"ulti":693,"Ġgro":694,"Ġ2024":695,"1145":696,"Ġro":697,"attern":698,"here":699,"abel":700,"evel":701,"ucture":702,"19":703,"37":704,"ful":705,"ll":706,"Ġrec":707,"Ġstud":708,"Ġmethod":709,"Ġacross":710,"25":711,"SE":712,"equ":713,"ient":714,"sh":715,"Ġ4":716,"edd":717,"edings":718,"Ġdes":719,"lev":720,"ceedings":721,"ĠCh":722,"ipel":723,"duc":724,"ata":725,"ely":726,"ĠYu":727,"rics":728,"CA":729,"yu":730,"ĠQ":731,"Ġar":732,"ant":733,"Ġcode":734,"Ġpaper":735,"ack":736,"Ġprac":737,"ak":738,"bo":739,"Ġsh":740,"agn":741,"Ġvari":742,"ĠNo":743,"Ġtasks":744,"rect":745,"16":746,"Ġat":747,"Ġdec":748,"Ġoutput":749,"Ġevalu":750,"Ġretrieval":751,"ii":752,"ian":753,"Ġ+":754,"Ġ6":755,"ary":756,"Ġthey":757,"ĠChen":758,"Ġnot":759,"Ġusing":760,"earch":761,"Proceedings":762,"oy":763,"Ġ/":764,"Ġimp":765,"antic":766,"Ġpattern":767,"Ġpipel":768,"Ġman":769,"Ġfailure":770,"Ġrep":771,"Ġtemplates":772,"ms":773,"ual":774,"ther":775,"Xiv":776,"ep":777,"han":778,"xiv":779,"Ġ20":780,"Ġsur":781,"arxiv":782,"Ġlear":783,"roach":784,"Ġmess":785,"ason":786,"Ġrepresent":787,"abl":788,"abs":789,"ĠIC":790,"ĠComp":791,"Ġoften":792,"ight":793,"Ġwhile":794,"Ġtemplate":795,"indow":796,"ĠEngineering":797,"17":798,"ri":799,"ution":800,"ĠV":801,"ench":802,"ese":803,"Ġcor":804,"Ġmain":805,"Ġinto":806,"own":807,"ift":808,"Ġuse":809,"Ġincid":810,"ou":811,"text":812,"Ġqu":813,"est":814,"Ġsel":815,"Ġlabel":816,"Ġres":817,"Ġwhen":818,"ained":819,"ĠLiu":820,"ix":821,"over":822,"Ġmulti":823,"Ġdif":824,"Ġinter":825,"acy":826,"Ġemb":827,"ĠSupervised":828,"00":829,"23":830,"aw":831,"ram":832,"tiv":833,"ality":834,"Ġset":835,"ature":836,"stream":837,"oder":838,"utom":839,"ult":840,"Ġsuch":841,"ugh":842,"ĠThis":843,"pecific":844,"14":845,"GL":846,"ound":847,"Ġhe":848,"ens":849,"Ġtyp":850,"Ġhigh":851,"vey":852,"Ġthis":853,"ĠBGL":854,"du":855,"doi":856,"tun":857,"ating":858,"Ġdr":859,"amet":860,"ize":861,"ffic":862,"Ġprompt":863,"Ġstructure":864,"24":865,"Ġdis":866,"Ġwe":867,"ĠAc":868,"ĠThe":869,"ĠInProceedings":870,"Ġwhich":871,"Ġmetrics":872,"ugment":873,"Ġcomm":874,"Ġsemantic":875,"Ġpapers":876,"35":877,"ber":878,"lud":879,"ness":880,"pro":881,"uang":882,"Ġmay":883,"ace":884,"ome":885,"ever":886,"Ġevent":887,"Ġdiagn":888,"te":889,"Ġ-":890,"Ġstat":891,"ency":892,"Ġembedd":893,"08":894,"cur":895,"ead":896,"ie":897,"iew":898,"main":899,"ision":900,"Ġwhere":901,"ĠYang":902,"ĠHe":903,"ĠUn":904,"mark":905,"iao":906,"serv":907,"roaches":908,"enchmark":909,"ownstream":910,"DF":911,"In":912,"cr":913,"cess":914,"fer":915,"flow":916,"now":917,"Ġid":918,"Ġover":919,"ural":920,"Ġonly":921,"Ġconstr":922,"olog":923,"Ġsummarization":924,"pend":925,"Ġdrift":926,"39":927,"ai":928,"atic":929,"Ġke":930,"ath":931,"Ġper":932,"icit":933,"2025":934,"ĠWang":935,"Ġcompon":936,"Ġprompting":937,"Ġoperational":938,"Ġsystems":939,"Ġstudies":940,"ĠICL":941,"12":942,"TA":943,"specific":944,"the":945,"yle":946,"ale":947,"ets":948,"ĠRo":949,"ploy":950,"ĠXu":951,"Ġsurvey":952,"DFS":953,"110":954,"ACM":955,"ied":956,"Ġtext":957,"ist":958,"etw":959,"mpt":960,"training":961,"Ġalso":962,"level":963,"Ġoutputs":964,"Ġlearning":965,"Ġincident":966,"utomated":967,"pr":968,"Ġtime":969,"err":970,"Ġcause":971,"Ġmost":972,"ase":973,"ĠRCA":974,"sist":975,"ized":976,"ĠBERT":977,"apt":978,"ĠWe":979,"Ġdeploy":980,"equence":981,"ĠComput":982,"BERT":983,"Ġ7":984,"ator":985,"ethod":986,"Ġwindow":987,"ame":988,"ĠHDFS":989,"Ġclass":990,"Ġprediction":991,"Ġdesign":992,"gr":993,"iation":994,"our":995,"wh":996,"ree":997,"entif":998,"Ġfe":999,"stead":1000,"Ġreason":1001,"act":1002,"ide":1003,"Ġprov":1004,"ĠJi":1005,"Ġcontro":1006,"ial":1007,"ple":1008,"Ġag":1009,"Ġmore":1010,"Ġdata":1011,"Ġob":1012,"ĠTr":1013,"Ġ2023":1014,"heng":1015,"uping":1016,"Ġenc":1017,"ĠOn":1018,"context":1019,"Ġexplicit":1020,"Ġapproaches":1021,"Ġmany":1022,"26":1023}