{"<|endoftext|>":0,"!":1,"\"":2,"#":3,"$":4,"%":5,"&":6,"'":7,"(":8,")":9,"*":10,"+":11,",":12,"-":13,".":14,"/":15,"0":16,"1":17,"2":18,"3":19,"4":20,"5":21,"6":22,"7":23,"8":24,"9":25,":":26,";":27,"<":28,"=":29,">":30,"?":31,"@":32,"A":33,"B":34,"C":35,"D":36,"E":37,"F":38,"G":39,"H":40,"I":41,"J":42,"K":43,"L":44,"M":45,"N":46,"O":47,"P":48,"Q":49,"R":50,"S":51,"T":52,"U":53,"V":54,"W":55,"X":56,"Y":57,"Z":58,"[":59,"\\":60,"]":61,"^":62,"_":63,"`":64,"a":65,"b":66,"c":67,"d":68,"e":69,"f":70,"g":71,"h":72,"i":73,"j":74,"k":75,"l":76,"m":77,"n":78,"o":79,"p":80,"q":81,"r":82,"s":83,"t":84,"u":85,"v":86,"w":87,"x":88,"y":89,"z":90,"{":91,"|":92,"}":93,"~":94,"¡":95,"¢":96,"£":97,"¤":98,"¥":99,"¦":100,"§":101,"¨":102,"©":103,"ª":104,"«":105,"¬":106,"®":107,"¯":108,"°":109,"±":110,"²":111,"³":112,"´":113,"µ":114,"¶":115,"·":116,"¸":117,"¹":118,"º":119,"»":120,"¼":121,"½":122,"¾":123,"¿":124,"À":125,"Á":126,"Â":127,"Ã":128,"Ä":129,"Å":130,"Æ":131,"Ç":132,"È":133,"É":134,"Ê":135,"Ë":136,"Ì":137,"Í":138,"Î":139,"Ï":140,"Ð":141,"Ñ":142,"Ò":143,"Ó":144,"Ô":145,"Õ":146,"Ö":147,"×":148,"Ø":149,"Ù":150,"Ú":151,"Û":152,"Ü":153,"Ý":154,"Þ":155,"ß":156,"à":157,"á":158,"â":159,"ã":160,"ä":161,"å":162,"æ":163,"ç":164,"è":165,"é":166,"ê":167,"ë":168,"ì":169,"í":170,"î":171,"ï":172,"ð":173,"ñ":174,"ò":175,"ó":176,"ô":177,"õ":178,"ö":179,"÷":180,"ø":181,"ù":182,"ú":183,"û":184,"ü":185,"ý":186,"þ":187,"ÿ":188,"Ā":189,"ā":190,"Ă":191,"ă":192,"Ą":193,"ą":194,"Ć":195,"ć":196,"Ĉ":197,"ĉ":198,"Ċ":199,"ċ":200,"Č":201,"č":202,"Ď":203,"ď":204,"Đ":205,"đ":206,"Ē":207,"ē":208,"Ĕ":209,"ĕ":210,"Ė":211,"ė":212,"Ę":213,"ę":214,"Ě":215,"ě":216,"Ĝ":217,"ĝ":218,"Ğ":219,"ğ":220,"Ġ":221,"ġ":222,"Ģ":223,"ģ":224,"Ĥ":225,"ĥ":226,"Ħ":227,"ħ":228,"Ĩ":229,"ĩ":230,"Ī":231,"ī":232,"Ĭ":233,"ĭ":234,"Į":235,"į":236,"İ":237,"ı":238,"Ĳ":239,"ĳ":240,"Ĵ":241,"ĵ":242,"Ķ":243,"ķ":244,"ĸ":245,"Ĺ":246,"ĺ":247,"Ļ":248,"ļ":249,"Ľ":250,"ľ":251,"Ŀ":252,"ŀ":253,"Ł":254,"ł":255,"Ń":256,"in":257,"an":258,"on":259,"re":260,"ti":261,"en":262,"er":263,"ing":264,"Ġt":265,"al":266,"or":267,"es":268,"Ġs":269,"Ġan":270,"tion":271,"ar":272,"ed":273,"at":274,"Ġc":275,"Ġp":276,"Ġa":277,"Ġl":278,"Ġand":279,"og":280,"is":281,"ro":282,"he":283,"Ġm":284,"it":285,"Ġd":286,"Ġf":287,"ation":288,"ent":289,"ic":290,"ĠL":291,"et":292,"el":293,"mp":294,"as":295,"ec":296,"st":297,"Ġin":298,"Ġre":299,"Ġw":300,"Ġo":301,"ac":302,"Ġe":303,"Ġthe":304,"le":305,"ĠS":306,"Ġlog":307,"Ġb":308,"od":309,"20":310,"ce":311,"un":312,"us":313,"ab":314,"Ġ[":315,"ag":316,"Ġ(":317,"ĠI":318,"ang":319,"ly":320,"ĠA":321,"ut":322,"om":323,"Ġto":324,"id":325,"il":326,"ĠC":327,"ur":328,"tr":329,"em":330,"ig":331,"ĠT":332,"Ġof":333,"âĢ":334,"ĠY":335,"ain":336,"202":337,"10":338,"per":339,"Ġon":340,"LM":341,"ow":342,"aly":343,"Ġh":344,"Ġfor":345,"ul":346,"Ġcon":347,"am":348,"ter":349,"ve":350,"ĠM":351,"ĠF":352,"Ġth":353,"ev":354,"ine":355,"Ġor":356,"ch":357,"ad":358,"ith":359,"ol":360,"if":361,"tic":362,"ity":363,"ĠR":364,"ĠIn":365,"ĠH":366,"ure":367,"Ġpro":368,"omp":369,"Ġn":370,"Ġst":371,"Ġg":372,"ĠLLM":373,"Ġv":374,"Ġsu":375,"th":376,"sis":377,"Ġev":378,"ex":379,"Ġex":380,"Ġ202":381,"ĠP":382,"ĠZ":383,"odel":384,"age":385,"iz":386,"ĠB":387,"Ġwith":388,"ars":389,"ts":390,"ss":391,"are":392,"Ġis":393,"ate":394,"ĠG":395,"ĠJ":396,"ting":397,"ĠE":398,"qu":399,"ong":400,"pl":401,"ess":402,"Ġmodel":403,"und":404,"iv":405,"),":406,"uc":407,"ection":408,"hen":409,"ĠD":410,"ased":411,"mpl":412,"Log":413,"ot":414,"ers":415,"ap":416,"ĠU":417,"Ġpre":418,"and":419,"Ġas":420,"].":421,"of":422,"ĠW":423,"ext":424,"Ġus":425,"Ġr":426,"EE":427,"Ġal":428,"str":429,"11":430,"mar":431,"ment":432,"ren":433,"able":434,"Ġare":435,"based":436,"ener":437,"ĠN":438,"ask":439,"ĠZh":440,"ps":441,"tive":442,"to":443,"ies":444,"tern":445,"ud":446,"ail":447,"os":448,"pre":449,"alysis":450,"Ġ1":451,"ence":452,"orm":453,"ĠLog":454,"oc":455,"empl":456,"all":457,"Ġpars":458,"ational":459,"Ġdet":460,"igh":461,"ia":462,"Ġcomp":463,"im":464,"ir":465,"up":466,"omaly":467,"fe":468,"ging":469,"âĢĵ":470,"tt":471,"ge":472,"Ġlogs":473,"Ġcont":474,"ver":475,"Ġthat":476,"Ġtr":477,"ear":478,"oi":479,"ated":480,"Ġwh":481,"ion":482,"tri":483,"ore":484,"ware":485,"feren":486,"log":487,"ork":488,"ĠLi":489,"um":490,"ross":491,"//":492,"tim":493,"ttps":494,"ates":495,"RL":496,"aus":497,"Ġmet":498,"ew":499,"Ġen":500,"ĠX":501,"Ġ10":502,"angu":503,"yst":504,"Ġtask":505,"Ġbe":506,"Ġgener":507,"anguage":508,"ility":509,"Ġdetection":510,"ystem":511,".,":512,"pp":513,"ations":514,"://":515,"ally":516,"ug":517,"org":518,"Ġac":519,"Ġinc":520,"ach":521,"oft":522,"ff":523,"ost":524,"ric":525,"ĠYes":526,"ĠURL":527,"form":528,"ĠO":529,"vis":530,"ings":531,"ents":532,"ĠK":533,"Ġtempl":534,"Ġanomaly":535,"Ġhttps":536,"ages":537,"ect":538,"ference":539,"PT":540,"Ġpr":541,"Ġ2025":542,"Ġparsing":543,"ke":544,"ten":545,"pervis":546,"con":547,"Ġanalysis":548,"Ġde":549,"rec":550,"ering":551,"under":552,"oftware":553,"ĠTh":554,"Ġpromp":555,"Ġmodels":556,"hod":557,"Ġby":558,"ay":559,"ip":560,"ort":561,"rom":562,"eng":563,"ign":564,"triev":565,"45":566,"ability":567,"ĠCon":568,"dic":569,"ĠâĢ":570,"ari":571,"Ġlogging":572,"ode":573,"ization":574,"alu":575,"idence":576,"Ġsum":577,"ao":578,"pervised":579,"Ġsummar":580,"ance":581,"Ġcan":582,"put":583,"ause":584,"Ġstr":585,"Ġlanguage":586,"ailure":587,"aper":588,"sent":589,"Ġad":590,"Ġoper":591,"pec":592,"Ġsystem":593,"arge":594,"Ġdoi":595,"EEE":596,"gine":597,"Ġfrom":598,"ich":599,"ER":600,"ition":601,"line":602,"ĠSh":603,"uct":604,"21":605,"ord":606,"Ġch":607,"36":608,"Ġit":609,"Ġretriev":610,"Ġexpl":611,"present":612,"pen":613,"upervised":614,"âĢĿ":615,"Ġdi":616,"gineering":617,"low":618,"ind":619,"Ġcontext":620,"Pro":621,"Ġpar":622,"Ġwork":623,"time":624,"ile":625,"ning":626,"ser":627,"ĠLLMs":628,"ternational":629,"ĠâĢľ":630,"ib":631,"aining":632,"ERT":633,"mb":634,"ted":635,"ific":636,"ĠZhang":637,").":638,"yp":639,"ans":640,"Ġevidence":641,"Ġet":642,"int":643,"tions":644,"ĠEn":645,"av":646,"Ġsc":647,"Ġcl":648,"IC":649,"ous":650,"enc":651,"Ġbut":652,"ĠInternational":653,"Ġlarge":654,"ical":655,"ement":656,"imp":657,"li":658,"ust":659,"Ġ.":660,"Ġun":661,"Ġunder":662,"ines":663,"tif":664,"Ġcom":665,"Ġapp":666,"ĠSoftware":667,"ĠAn":668,"ĠGPT":669,"15":670,"CM":671,"Ġ3":672,"Ġsem":673,"trac":674,"Ġgeneration":675,"18":676,"ei":677,"ard":678,"ĠIEEE":679,"utput":680,"tics":681,"Ġpredic":682,"LLM":683,"so":684,"ream":685,"ors":686,"Ġpages":687,"ĠConference":688,"ative":689,"op":690,"ass":691,"ulti":692,"Ġgro":693,"Ġ2024":694,"1145":695,"Ġro":696,"attern":697,"here":698,"abel":699,"evel":700,"ucture":701,"19":702,"37":703,"ful":704,"ll":705,"Ġrec":706,"Ġstud":707,"Ġmethod":708,"Ġacross":709,"25":710,"SE":711,"equ":712,"ient":713,"sh":714,"Ġ4":715,"edd":716,"edings":717,"Ġdes":718,"lev":719,"ceedings":720,"ĠCh":721,"ipel":722,"duc":723,"ata":724,"ely":725,"ĠYu":726,"rics":727,"CA":728,"yu":729,"ĠQ":730,"Ġar":731,"ant":732,"Ġcode":733,"Ġpaper":734,"ack":735,"Ġprac":736,"ak":737,"bo":738,"Ġsh":739,"agn":740,"Ġvari":741,"ĠNo":742,"Ġtasks":743,"rect":744,"16":745,"Ġat":746,"Ġdec":747,"Ġoutput":748,"Ġevalu":749,"Ġretrieval":750,"ii":751,"ian":752,"Ġ+":753,"Ġ6":754,"ary":755,"Ġthey":756,"ĠChen":757,"Ġnot":758,"Ġusing":759,"earch":760,"Proceedings":761,"oy":762,"Ġ/":763,"Ġimp":764,"antic":765,"Ġpattern":766,"Ġpipel":767,"Ġman":768,"Ġfailure":769,"Ġrep":770,"Ġtemplates":771,"ms":772,"ual":773,"ther":774,"Xiv":775,"ep":776,"han":777,"xiv":778,"Ġ20":779,"Ġsur":780,"arxiv":781,"Ġlear":782,"roach":783,"Ġmess":784,"ason":785,"Ġrepresent":786,"abl":787,"abs":788,"ĠIC":789,"ĠComp":790,"Ġoften":791,"ight":792,"Ġwhile":793,"Ġtemplate":794,"indow":795,"ĠEngineering":796,"17":797,"ri":798,"ution":799,"ĠV":800,"ench":801,"ese":802,"Ġcor":803,"Ġmain":804,"Ġinto":805,"own":806,"ift":807,"Ġuse":808,"Ġincid":809,"ou":810,"text":811,"Ġqu":812,"est":813,"Ġsel":814,"Ġlabel":815,"Ġres":816,"Ġwhen":817,"ained":818,"ĠLiu":819,"ix":820,"over":821,"Ġmulti":822,"Ġdif":823,"Ġinter":824,"acy":825,"Ġemb":826,"ĠSupervised":827,"00":828,"23":829,"aw":830,"ram":831,"tiv":832,"ality":833,"Ġset":834,"ature":835,"stream":836,"oder":837,"utom":838,"ult":839,"Ġsuch":840,"ugh":841,"ĠThis":842,"pecific":843,"14":844,"GL":845,"ound":846,"Ġhe":847,"ens":848,"Ġtyp":849,"Ġhigh":850,"vey":851,"Ġthis":852,"ĠBGL":853,"du":854,"doi":855,"tun":856,"ating":857,"Ġdr":858,"amet":859,"ize":860,"ffic":861,"Ġprompt":862,"Ġstructure":863,"24":864,"Ġdis":865,"Ġwe":866,"ĠAc":867,"ĠThe":868,"ĠInProceedings":869,"Ġwhich":870,"Ġmetrics":871,"ugment":872,"Ġcomm":873,"Ġsemantic":874,"Ġpapers":875,"35":876,"ber":877,"lud":878,"ness":879,"pro":880,"uang":881,"Ġmay":882,"ace":883,"ome":884,"ever":885,"Ġevent":886,"Ġdiagn":887,"te":888,"Ġ-":889,"Ġstat":890,"ency":891,"Ġembedd":892,"08":893,"cur":894,"ead":895,"ie":896,"iew":897,"main":898,"ision":899,"Ġwhere":900,"ĠYang":901,"ĠHe":902,"ĠUn":903,"mark":904,"iao":905,"serv":906,"roaches":907,"enchmark":908,"ownstream":909,"DF":910,"In":911,"cr":912,"cess":913,"fer":914,"flow":915,"now":916,"Ġid":917,"Ġover":918,"ural":919,"Ġonly":920,"Ġconstr":921,"olog":922,"Ġsummarization":923,"pend":924,"Ġdrift":925,"39":926,"ai":927,"atic":928,"Ġke":929,"ath":930,"Ġper":931,"icit":932,"2025":933,"ĠWang":934,"Ġcompon":935,"Ġprompting":936,"Ġoperational":937,"Ġsystems":938,"Ġstudies":939,"ĠICL":940,"12":941,"TA":942,"specific":943,"the":944,"yle":945,"ale":946,"ets":947,"ĠRo":948,"ploy":949,"ĠXu":950,"Ġsurvey":951,"DFS":952,"110":953,"ACM":954,"ied":955,"Ġtext":956,"ist":957,"etw":958,"mpt":959,"training":960,"Ġalso":961,"level":962,"Ġoutputs":963,"Ġlearning":964,"Ġincident":965,"utomated":966,"pr":967,"Ġtime":968,"err":969,"Ġcause":970,"Ġmost":971,"ase":972,"ĠRCA":973,"sist":974,"ized":975,"ĠBERT":976,"apt":977,"ĠWe":978,"Ġdeploy":979,"equence":980,"ĠComput":981,"BERT":982,"Ġ7":983,"ator":984,"ethod":985,"Ġwindow":986,"ame":987,"ĠHDFS":988,"Ġclass":989,"Ġprediction":990,"Ġdesign":991,"gr":992,"iation":993,"our":994,"wh":995,"ree":996,"entif":997,"Ġfe":998,"stead":999,"Ġreason":1000,"act":1001,"ide":1002,"Ġprov":1003,"ĠJi":1004,"Ġcontro":1005,"ial":1006,"ple":1007,"Ġag":1008,"Ġmore":1009,"Ġdata":1010,"Ġob":1011,"ĠTr":1012,"Ġ2023":1013,"heng":1014,"uping":1015,"Ġenc":1016,"ĠOn":1017,"context":1018,"Ġexplicit":1019,"Ġapproaches":1020,"Ġmany":1021,"26":1022,"SS":1023}